{"[UNK]": 0, "[PAD]": 1, "[SOS]": 2, "[EOS]": 3, "!": 4, "\"": 5, "#": 6, "$": 7, "%": 8, "&": 9, "'": 10, "(": 11, ")": 12, "*": 13, "+": 14, ",": 15, "-": 16, ".": 17, "/": 18, "0": 19, "1": 20, "2": 21, "3": 22, "4": 23, "5": 24, "6": 25, "7": 26, "8": 27, "9": 28, ":": 29, ";": 30, "<": 31, "=": 32, ">": 33, "?": 34, "@": 35, "A": 36, "B": 37, "C": 38, "D": 39, "E": 40, "F": 41, "G": 42, "H": 43, "I": 44, "J": 45, "K": 46, "L": 47, "M": 48, "N": 49, "O": 50, "P": 51, "Q": 52, "R": 53, "S": 54, "T": 55, "U": 56, "V": 57, "W": 58, "X": 59, "Y": 60, "Z": 61, "[": 62, "\\": 63, "]": 64, "^": 65, "_": 66, "`": 67, "a": 68, "b": 69, "c": 70, "d": 71, "e": 72, "f": 73, "g": 74, "h": 75, "i": 76, "j": 77, "k": 78, "l": 79, "m": 80, "n": 81, "o": 82, "p": 83, "q": 84, "r": 85, "s": 86, "t": 87, "u": 88, "v": 89, "w": 90, "x": 91, "y": 92, "z": 93, "{": 94, "|": 95, "}": 96, "~": 97, "\u00a3": 98, "\u00a7": 99, "\u00ae": 100, "\u00b0": 101, "\u00b1": 102, "\u00b2": 103, "\u00b3": 104, "\u00b5": 105, "\u00bc": 106, "\u00bd": 107, "\u00be": 108, "\u00d6": 109, "\u00d7": 110, "\u00e0": 111, "\u00e1": 112, "\u00e2": 113, "\u00e4": 114, "\u00e7": 115, "\u00e8": 116, "\u00e9": 117, "\u00f1": 118, "\u00f3": 119, "\u00f6": 120, "\u00f7": 121, "\u00fa": 122, "\u0101": 123, "\u011f": 124, "\u0131": 125, "\u014d": 126, "\u02bb": 127, "\u0394": 128, "\u03a9": 129, "\u03b8": 130, "\u03bb": 131, "\u03c0": 132, "\u1ebf": 133, "\u1ee7": 134, "\u200b": 135, "\u2013": 136, "\u2014": 137, "\u2018": 138, "\u2019": 139, "\u201c": 140, "\u201d": 141, "\u2022": 142, "\u2026": 143, "\u2061": 144, "\u2074": 145, "\u20ac": 146, "\u215b": 147, "\u215c": 148, "\u2192": 149, "\u2212": 150, "\u221a": 151, "\u222b": 152, "\u2248": 153, "\u2260": 154, "\u2264": 155, "\u2265": 156, "\u229e": 157, "\u2610": 158, "\u2630": 159, "\u306e": 160, "\u4e38": 161, "\u65d7": 162, "\u65e5": 163, "\u7ae0": 164, "\ud83d\udc34": 165, "in": 166, "re": 167, "th": 168, "on": 169, "an": 170, "er": 171, "ing": 172, "ti": 173, "es": 174, "en": 175, "ou": 176, "or": 177, "al": 178, "te": 179, "and": 180, "to": 181, "--": 182, "the": 183, "le": 184, "ar": 185, "you": 186, "tion": 187, "st": 188, "at": 189, "ro": 190, "ac": 191, "si": 192, "de": 193, "se": 194, "ly": 195, "your": 196, "li": 197, "ent": 198, "ve": 199, "is": 200, "it": 201, "----": 202, "ch": 203, "co": 204, "of": 205, "ce": 206, "as": 207, "for": 208, "me": 209, "lo": 210, "ation": 211, "wi": 212, "su": 213, "pro": 214, "ate": 215, "ic": 216, "ec": 217, "tep": 218, "con": 219, "ab": 220, "gh": 221, "mp": 222, "ad": 223, "ul": 224, "res": 225, "ed": 226, "ers": 227, "with": 228, "ri": 229, "ui": 230, "Step": 231, "be": 232, "ge": 233, "ess": 234, "ap": 235, "un": 236, "vi": 237, "he": 238, "di": 239, "ma": 240, "ter": 241, "ur": 242, "sh": 243, "**": 244, "ow": 245, "ts": 246, "ll": 247, "ver": 248, "ment": 249, "ex": 250, "are": 251, "==": 252, "mo": 253, "ke": 254, "ir": 255, "--------": 256, "ol": 257, "ay": 258, "po": 259, "wh": 260, "ain": 261, "lin": 262, "ting": 263, "us": 264, "fe": 265, "ip": 266, "per": 267, "out": 268, "ey": 269, "##": 270, "tr": 271, "uide": 272, "il": 273, "der": 274, "pl": 275, "so": 276, "our": 277, "ding": 278, "ut": 279, "ne": 280, "we": 281, "oo": 282, "sp": 283, "qu": 284, "du": 285, "ty": 286, "all": 287, "com": 288, "ther": 289, "tions": 290, "low": 291, "am": 292, "if": 293, "sion": 294, "tive": 295, "Key": 296, "op": 297, "tic": 298, "ds": 299, "ght": 300, "oun": 301, "that": 302, "ci": 303, "age": 304, "able": 305, "ten": 306, "fo": 307, "can": 308, "cre": 309, "id": 310, "comp": 311, "up": 312, "str": 313, "ally": 314, "ag": 315, "im": 316, "Re": 317, "ance": 318, "ough": 319, "king": 320, "====": 321, "uidelin": 322, "ity": 323, "ful": 324, "ces": 325, "iz": 326, "mb": 327, "cl": 328, "app": 329, "by": 330, "et": 331, "cess": 332, "rom": 333, "min": 334, "ure": 335, "ct": 336, "ese": 337, "ations": 338, "ren": 339, "Tip": 340, "gn": 341, "Th": 342, "av": 343, "Guidelin": 344, "form": 345, "from": 346, "ach": 347, "pre": 348, "el": 349, "gr": 350, "tain": 351, "Con": 352, "ili": 353, "ha": 354, "bo": 355, "In": 356, "wor": 357, "ack": 358, "ile": 359, "ence": 360, "ating": 361, "ase": 362, "ff": 363, "ant": 364, "ld": 365, "ace": 366, "one": 367, "est": 368, "----------------": 369, "ous": 370, "ments": 371, "sure": 372, "ta": 373, "ties": 374, "no": 375, "ep": 376, "ress": 377, "ort": 378, "als": 379, "this": 380, "ted": 381, "fore": 382, "rough": 383, "over": 384, "qui": 385, "ong": 386, "ra": 387, "par": 388, "ded": 389, "time": 390, "ater": 391, "cor": 392, "enti": 393, "any": 394, "comm": 395, "clu": 396, "will": 397, "do": 398, "lic": 399, "ound": 400, "nec": 401, "cont": 402, "through": 403, "these": 404, "ated": 405, "ies": 406, "ks": 407, "main": 408, "its": 409, "ary": 410, "Tips": 411, "like": 412, "sel": 413, "war": 414, "red": 415, "pp": 416, "act": 417, "ction": 418, "their": 419, "dis": 420, "ru": 421, "Be": 422, "step": 423, "way": 424, "pec": 425, "uring": 426, "cle": 427, "ms": 428, "using": 429, "ever": 430, "ight": 431, "des": 432, "ular": 433, "les": 434, "own": 435, "fin": 436, "when": 437, "au": 438, "ear": 439, "ev": 440, "self": 441, "###": 442, "pe": 443, "them": 444, "tiv": 445, "ors": 446, "Guidelines": 447, "eng": 448, "hel": 449, "This": 450, "into": 451, "end": 452, "stand": 453, "Ex": 454, "ollow": 455, "peri": 456, "Your": 457, "provi": 458, "consi": 459, "ble": 460, "ould": 461, "ang": 462, "ser": 463, "Ch": 464, "off": 465, "sive": 466, "ill": 467, "rac": 468, "ents": 469, "ast": 470, "mber": 471, "spec": 472, "ific": 473, "cal": 474, "sk": 475, "row": 476, "========": 477, "Co": 478, "such": 479, "pers": 480, "reg": 481, "hi": 482, "ility": 483, "pri": 484, "cus": 485, "rel": 486, "under": 487, "ari": 488, "ial": 489, "tip": 490, "enc": 491, "ize": 492, "ine": 493, "during": 494, "feren": 495, "mon": 496, "ob": 497, "here": 498, "plan": 499, "ste": 500, "other": 501, "help": 502, "before": 503, "um": 504, "tim": 505, "hy": 506, "ving": 507, "art": 508, "How": 509, "while": 510, "but": 511, "na": 512, "ust": 513, "cur": 514, "requi": 515, "about": 516, "steps": 517, "ind": 518, "guide": 519, "follow": 520, "ati": 521, "process": 522, "bet": 523, "ning": 524, "tional": 525, "ves": 526, "oid": 527, "cial": 528, "inter": 529, "Ad": 530, "may": 531, "St": 532, "line": 533, "care": 534, "ign": 535, "val": 536, "ist": 537, "person": 538, "The": 539, "ings": 540, "hen": 541, "By": 542, "ates": 543, "sur": 544, "iqu": 545, "oth": 546, "ze": 547, "back": 548, "inclu": 549, "more": 550, "sing": 551, "pres": 552, "ry": 553, "Al": 554, "set": 555, "member": 556, "play": 557, "have": 558, "they": 559, "dy": 560, "ree": 561, "ele": 562, "ently": 563, "En": 564, "work": 565, "imp": 566, "fi": 567, "experi": 568, "ass": 569, "ard": 570, "ho": 571, "man": 572, "loc": 573, "some": 574, "ite": 575, "ness": 576, "sign": 577, "tu": 578, ":**": 579, "ffec": 580, "new": 581, "yourself": 582, "fully": 583, "maintain": 584, "Guideline": 585, "ood": 586, "sa": 587, "now": 588, "ga": 589, "Pro": 590, "vel": 591, "ue": 592, "tro": 593, "If": 594, "go": 595, "sul": 596, "da": 597, "led": 598, "sions": 599, "get": 600, "inte": 601, "ak": 602, "following": 603, "col": 604, "ans": 605, "alth": 606, "ps": 607, "sed": 608, "tively": 609, "comple": 610, "tial": 611, "fter": 612, "lish": 613, "ew": 614, "ship": 615, "allow": 616, "down": 617, "posi": 618, "ich": 619, "ensure": 620, "ake": 621, "rest": 622, "od": 623, "essary": 624, "clo": 625, "fl": 626, "appro": 627, "cho": 628, "ality": 629, "stru": 630, "bu": 631, "jec": 632, "tice": 633, "oose": 634, "br": 635, "mple": 636, "ef": 637, "ased": 638, "ways": 639, "cu": 640, "ss": 641, "commun": 642, "ccess": 643, "light": 644, "pon": 645, "vari": 646, "To": 647, "within": 648, "De": 649, "fri": 650, "coun": 651, "hand": 652, "supp": 653, "fir": 654, "ish": 655, "On": 656, "fort": 657, "where": 658, "velo": 659, "fy": 660, "prof": 661, "health": 662, "ual": 663, "pect": 664, "water": 665, "necessary": 666, "For": 667, "ath": 668, "make": 669, "feel": 670, "Tit": 671, "Remember": 672, "which": 673, "move": 674, "ween": 675, "Title": 676, "lear": 677, "trodu": 678, "ail": 679, "high": 680, "well": 681, "rect": 682, "without": 683, "clean": 684, "gin": 685, "then": 686, "gen": 687, "jo": 688, "ication": 689, "need": 690, "understand": 691, "ering": 692, "how": 693, "velop": 694, "cer": 695, "than": 696, "divi": 697, "prac": 698, "not": 699, "Use": 700, "exp": 701, "bre": 702, "both": 703, ").": 704, "gg": 705, "every": 706, "sc": 707, "between": 708, "ures": 709, "arch": 710, "inv": 711, "side": 712, "pare": 713, "poten": 714, "specific": 715, "ily": 716, "vers": 717, "impro": 718, "consider": 719, "should": 720, "connec": 721, "air": 722, "just": 723, "sm": 724, "sen": 725, "dif": 726, "personal": 727, "ability": 728, "incre": 729, "atch": 730, "sible": 731, "ices": 732, "ances": 733, "come": 734, "Pl": 735, "sy": 736, "provide": 737, "effec": 738, "open": 739, "chn": 740, "ick": 741, "add": 742, "skill": 743, "various": 744, "Ke": 745, "read": 746, "wards": 747, "ession": 748, "loo": 749, "ling": 750, "consist": 751, "Keep": 752, "prev": 753, "Po": 754, "rehen": 755, "view": 756, "level": 757, "sic": 758, "ately": 759, "less": 760, "gi": 761, "top": 762, "sist": 763, "char": 764, "tw": 765, "pos": 766, "produ": 767, "dep": 768, "who": 769, "ns": 770, "bui": 771, "ities": 772, "ateg": 773, "differen": 774, "port": 775, "ron": 776, "success": 777, "ularly": 778, "might": 779, "eck": 780, "med": 781, "Introdu": 782, "conf": 783, "Op": 784, "formation": 785, "dividu": 786, "ffic": 787, "rehensive": 788, "tom": 789, "ential": 790, "ons": 791, "based": 792, "ones": 793, "even": 794, "potential": 795, "temp": 796, "list": 797, "sub": 798, "tho": 799, "avoid": 800, "chniqu": 801, "create": 802, "Wi": 803, "throughout": 804, "bl": 805, "lead": 806, "atten": 807, "It": 808, "individu": 809, "Un": 810, "til": 811, "You": 812, "valu": 813, "fac": 814, "iti": 815, "hair": 816, "mar": 817, "ash": 818, "day": 819, "fun": 820, "respon": 821, "aging": 822, "oc": 823, "ationship": 824, "each": 825, "Introduction": 826, "cru": 827, "grow": 828, "old": 829, "tes": 830, "ory": 831, "vice": 832, "what": 833, "Make": 834, "redu": 835, "others": 836, "comfort": 837, "att": 838, "ward": 839, "interest": 840, "ie": 841, "om": 842, "see": 843, "App": 844, "ner": 845, "stead": 846, "essential": 847, "poin": 848, "around": 849, "making": 850, "gan": 851, "Once": 852, "por": 853, "enh": 854, "entify": 855, "bility": 856, "================": 857, "cul": 858, "He": 859, "improve": 860, "Before": 861, "experience": 862, "Choose": 863, "mis": 864, "ub": 865, "ange": 866, "Av": 867, "bal": 868, "boo": 869, "car": 870, "until": 871, "relationship": 872, "sele": 873, "mul": 874, "ical": 875, "ctions": 876, "actions": 877, "mind": 878, "ending": 879, "fam": 880, "include": 881, "different": 882, "Set": 883, "thing": 884, "small": 885, "tur": 886, "ide": 887, "joy": 888, "tra": 889, "Cre": 890, "Ac": 891, "emo": 892, "safe": 893, "sty": 894, "cing": 895, "medi": 896, "ends": 897, "profession": 898, "clear": 899, "sider": 900, "there": 901, "ablish": 902, "tail": 903, "information": 904, "ages": 905, "ources": 906, "face": 907, "Consider": 908, "fle": 909, "cording": 910, "proper": 911, "along": 912, "could": 913, "ven": 914, "keep": 915, "also": 916, "termin": 917, "atter": 918, "Avoid": 919, "being": 920, "fer": 921, "Sh": 922, "pur": 923, "Pre": 924, "head": 925, "atur": 926, "appear": 927, "items": 928, "eded": 929, "aw": 930, "right": 931, "ency": 932, "tivity": 933, "overall": 934, "ca": 935, "tivi": 936, "techniqu": 937, "design": 938, ".,": 939, "iting": 940, "clusion": 941, "prevent": 942, "develop": 943, "rush": 944, "body": 945, "cover": 946, "take": 947, "typ": 948, "emp": 949, "ials": 950, "know": 951, "after": 952, "ses": 953, "acter": 954, "sult": 955, "ature": 956, "These": 957, "ences": 958, "dist": 959, "tivities": 960, "),": 961, "edu": 962, "allows": 963, "dition": 964, "An": 965, "So": 966, "--------------------------------": 967, "With": 968, "ually": 969, "tings": 970, "perform": 971, "cap": 972, "log": 973, "signific": 974, "mi": 975, "tt": 976, "mer": 977, "count": 978, "applic": 979, "pati": 980, "skills": 981, "Reg": 982, "has": 983, "towards": 984, "ved": 985, "ques": 986, "invol": 987, "crucial": 988, "rin": 989, "chall": 990, "reat": 991, "minim": 992, "long": 993, "cri": 994, "cau": 995, "nu": 996, "require": 997, "ture": 998, "aving": 999, "olu": 1000, "ft": 1001, "according": 1002, "due": 1003, "ghts": 1004, "fil": 1005, "two": 1006, "promo": 1007, "areas": 1008, "appropri": 1009, "significant": 1010, "reng": 1011, "ique": 1012, "comprehensive": 1013, "izing": 1014, "Mo": 1015, "ories": 1016, "ases": 1017, "ls": 1018, "mater": 1019, "tex": 1020, "mbers": 1021, "planation": 1022, "inst": 1023, "organ": 1024, "kes": 1025, "raw": 1026, "fact": 1027, "online": 1028, "life": 1029, "thor": 1030, "aring": 1031, "cep": 1032, "Conclusion": 1033, "dri": 1034, "use": 1035, "sof": 1036, "activities": 1037, "Prac": 1038, "utor": 1039, "ically": 1040, "unique": 1041, "show": 1042, "ics": 1043, "dry": 1044, "ribu": 1045, "mage": 1046, "free": 1047, "search": 1048, "understanding": 1049, "lying": 1050, "ming": 1051, "whe": 1052, "ph": 1053, "quality": 1054, "Under": 1055, "fur": 1056, "put": 1057, "needed": 1058, "ster": 1059, "Explanation": 1060, "tal": 1061, "mu": 1062, "mil": 1063, "cent": 1064, "partic": 1065, "tool": 1066, "exer": 1067, "space": 1068, "ample": 1069, "support": 1070, "confid": 1071, "avail": 1072, "first": 1073, "growth": 1074, "Wh": 1075, "skin": 1076, "prote": 1077, "friend": 1078, "deci": 1079, "access": 1080, "strateg": 1081, "spe": 1082, "place": 1083, "stu": 1084, "Dis": 1085, "suring": 1086, "**:": 1087, "tili": 1088, "However": 1089, "remain": 1090, "vig": 1091, "ade": 1092, "ben": 1093, "tutor": 1094, "rele": 1095, "lines": 1096, "possible": 1097, "cour": 1098, "Always": 1099, "Comp": 1100, "atures": 1101, "phy": 1102, "tri": 1103, "streng": 1104, "gu": 1105, "including": 1106, "tas": 1107, "ek": 1108, "fec": 1109, "part": 1110, "options": 1111, "ges": 1112, "sical": 1113, "action": 1114, "As": 1115, "buil": 1116, "10": 1117, "convers": 1118, "aper": 1119, "When": 1120, "ross": 1121, "Me": 1122, "chang": 1123, "ilities": 1124, "communication": 1125, "eye": 1126, "challeng": 1127, "vide": 1128, "After": 1129, "respect": 1130, "times": 1131, "Main": 1132, "tives": 1133, "vices": 1134, "ape": 1135, "share": 1136, "check": 1137, "direct": 1138, "pop": 1139, "again": 1140, "enjoy": 1141, "ffici": 1142, "Sec": 1143, "her": 1144, "ris": 1145, "web": 1146, "cise": 1147, "find": 1148, "ice": 1149, "key": 1150, "better": 1151, "cting": 1152, "Understand": 1153, "techniques": 1154, "vant": 1155, "men": 1156, "pi": 1157, "syste": 1158, "contain": 1159, "opport": 1160, "opportun": 1161, "ensuring": 1162, "iliar": 1163, "ave": 1164, "ins": 1165, "####": 1166, "ax": 1167, "social": 1168, "guidelin": 1169, "practice": 1170, "issu": 1171, "natur": 1172, "attention": 1173, "found": 1174, "Create": 1175, "contro": 1176, "pow": 1177, "most": 1178, "lick": 1179, "tutorial": 1180, "try": 1181, "star": 1182, "often": 1183, "agement": 1184, "ring": 1185, "available": 1186, "detail": 1187, "Practice": 1188, "Sele": 1189, "professional": 1190, "ger": 1191, "lar": 1192, "appropriate": 1193, "room": 1194, "load": 1195, "ket": 1196, "ously": 1197, "aining": 1198, "practic": 1199, "instead": 1200, "ditional": 1201, "best": 1202, "itor": 1203, "ative": 1204, "viron": 1205, "ild": 1206, "brush": 1207, "objec": 1208, "soci": 1209, "Com": 1210, "positive": 1211, "address": 1212, "Maintain": 1213, "aling": 1214, "scre": 1215, "encour": 1216, "gether": 1217, "character": 1218, "ats": 1219, "present": 1220, "fit": 1221, "ables": 1222, "import": 1223, "ledge": 1224, "ames": 1225, "offer": 1226, "those": 1227, "asing": 1228, "gently": 1229, "maintaining": 1230, "Here": 1231, "aking": 1232, "rather": 1233, "ized": 1234, "related": 1235, "reach": 1236, "situ": 1237, "net": 1238, "cir": 1239, "termine": 1240, "ches": 1241, "inten": 1242, "indow": 1243, "game": 1244, "mail": 1245, "focus": 1246, "don": 1247, "prog": 1248, "requ": 1249, "coming": 1250, "needs": 1251, "multip": 1252, "har": 1253, "wr": 1254, "let": 1255, "preferen": 1256, "firm": 1257, "dat": 1258, "vis": 1259, "enhance": 1260, "balance": 1261, "ather": 1262, "resul": 1263, "proce": 1264, "cts": 1265, "trans": 1266, "grou": 1267, "havi": 1268, "whether": 1269, "wal": 1270, "sever": 1271, "name": 1272, "gener": 1273, "sures": 1274, "requires": 1275, "adjust": 1276, "lay": 1277, "mit": 1278, "asic": 1279, "ck": 1280, "leg": 1281, "creating": 1282, "discus": 1283, "color": 1284, "arding": 1285, "forms": 1286, "complete": 1287, "friends": 1288, "Res": 1289, "patience": 1290, "want": 1291, "mental": 1292, "monstr": 1293, "too": 1294, "together": 1295, "prior": 1296, "ric": 1297, "onto": 1298, "optim": 1299, "look": 1300, "sts": 1301, "strong": 1302, "brow": 1303, "learn": 1304, "dr": 1305, "experiences": 1306, "xim": 1307, "tips": 1308, "Eng": 1309, "ju": 1310, "accur": 1311, "cli": 1312, "tical": 1313, "Id": 1314, "ople": 1315, "Se": 1316, "environ": 1317, "behavi": 1318, "area": 1319, "relationships": 1320, "smo": 1321, "become": 1322, "ia": 1323, "suit": 1324, "amp": 1325, "align": 1326, "coo": 1327, "cogn": 1328, "ational": 1329, "ook": 1330, "home": 1331, "Why": 1332, "active": 1333, "family": 1334, "utes": 1335, "goals": 1336, "thorough": 1337, "rent": 1338, "sti": 1339, "infor": 1340, "carefully": 1341, "foo": 1342, "ensures": 1343, "draw": 1344, "child": 1345, "exten": 1346, "iness": 1347, "etc": 1348, "Per": 1349, "ince": 1350, "learning": 1351, "materials": 1352, "patter": 1353, "real": 1354, "account": 1355, "additional": 1356, "individual": 1357, "only": 1358, "further": 1359, "multiple": 1360, "gre": 1361, "struct": 1362, "content": 1363, "type": 1364, "fine": 1365, "popular": 1366, "plat": 1367, "ground": 1368, "tools": 1369, "used": 1370, "lean": 1371, "Start": 1372, "effectively": 1373, "Fo": 1374, "date": 1375, "run": 1376, "corpor": 1377, "questions": 1378, "Add": 1379, "ening": 1380, "angu": 1381, "icate": 1382, "contin": 1383, "benef": 1384, "Gr": 1385, "ital": 1386, "size": 1387, "close": 1388, "---": 1389, "Identify": 1390, "levels": 1391, "asi": 1392, "members": 1393, "issues": 1394, "choose": 1395, "consistent": 1396, "regarding": 1397, "tar": 1398, "local": 1399, "terna": 1400, "cy": 1401, "gar": 1402, "aries": 1403, "minutes": 1404, "itize": 1405, "sit": 1406, "adually": 1407, "Regularly": 1408, "contact": 1409, "physical": 1410, "natural": 1411, "Tr": 1412, "lightly": 1413, "good": 1414, "paper": 1415, "feed": 1416, "rout": 1417, "resources": 1418, "ditions": 1419, "people": 1420, "ext": 1421, "Select": 1422, "dance": 1423, "ener": 1424, "gram": 1425, "opportunities": 1426, "several": 1427, "artic": 1428, "against": 1429, "gle": 1430, "weight": 1431, "ive": 1432, "che": 1433, "near": 1434, "providing": 1435, "acy": 1436, "chedu": 1437, "establish": 1438, "ging": 1439, "press": 1440, "begin": 1441, "Cont": 1442, "Addition": 1443, "knowledge": 1444, "ourn": 1445, "Some": 1446, "associ": 1447, "igh": 1448, "important": 1449, "Additionally": 1450, "Fin": 1451, "sec": 1452, "quick": 1453, "comfortable": 1454, "interests": 1455, "ini": 1456, "meas": 1457, "comb": 1458, "bi": 1459, "daily": 1460, "sto": 1461, "------------": 1462, "chool": 1463, "point": 1464, "While": 1465, "another": 1466, "feelings": 1467, "special": 1468, "results": 1469, "increase": 1470, "control": 1471, "pas": 1472, "ths": 1473, "anguage": 1474, "sle": 1475, "damage": 1476, "though": 1477, "approach": 1478, "websi": 1479, "zing": 1480, "concer": 1481, "regularly": 1482, ":*": 1483, "resh": 1484, "regular": 1485, "progress": 1486, "Follow": 1487, "No": 1488, "og": 1489, "contribu": 1490, "depending": 1491, "engaging": 1492, "data": 1493, "ber": 1494, "bar": 1495, "ired": 1496, "guidelines": 1497, "ton": 1498, "recomm": 1499, "across": 1500, "function": 1501, "factors": 1502, "changes": 1503, "hour": 1504, "os": 1505, "demonstr": 1506, "healthy": 1507, "chedule": 1508, "pan": 1509, "ands": 1510, "ond": 1511, "deep": 1512, "identify": 1513, "ord": 1514, "tics": 1515, "significantly": 1516, "soft": 1517, "example": 1518, "events": 1519, "reduce": 1520, "turn": 1521, "hor": 1522, "kn": 1523, "gl": 1524, "abilities": 1525, "cleaning": 1526, "points": 1527, "ctive": 1528, "mic": 1529, "ters": 1530, "always": 1531, "navig": 1532, "hip": 1533, "mess": 1534, "stress": 1535, "required": 1536, "starting": 1537, "Ne": 1538, "serve": 1539, "custom": 1540, "gui": 1541, "correct": 1542, "colle": 1543, "journ": 1544, "prefer": 1545, "safety": 1546, "ify": 1547, "ame": 1548, "insi": 1549, "chosen": 1550, "away": 1551, "lling": 1552, "dro": 1553, "gy": 1554, "incorpor": 1555, "ene": 1556, "ization": 1557, "screen": 1558, "stor": 1559, "features": 1560, "paren": 1561, "click": 1562, "comes": 1563, "performance": 1564, "Sp": 1565, "den": 1566, "enough": 1567, "position": 1568, "Est": 1569, "abor": 1570, "prepare": 1571, "walk": 1572, "moving": 1573, "grap": 1574, "common": 1575, "iliarize": 1576, "remove": 1577, "qual": 1578, "cip": 1579, "solu": 1580, "lore": 1581, "Develop": 1582, "certain": 1583, "stri": 1584, "individuals": 1585, "Establish": 1586, "effici": 1587, "ping": 1588, "pain": 1589, "build": 1590, "Up": 1591, "easi": 1592, "fect": 1593, "power": 1594, "dog": 1595, "cut": 1596, "resi": 1597, "types": 1598, "ball": 1599, "valuable": 1600, "application": 1601, "Section": 1602, "tilize": 1603, "email": 1604, "since": 1605, "thod": 1606, "mean": 1607, "lored": 1608, "tran": 1609, "uture": 1610, "warm": 1611, "thods": 1612, "mus": 1613, "values": 1614, "refle": 1615, "ark": 1616, "food": 1617, "hol": 1618, "cell": 1619, "track": 1620, "commit": 1621, "style": 1622, "strategies": 1623, "Using": 1624, "aly": 1625, "sity": 1626, "board": 1627, "language": 1628, "working": 1629, "patterns": 1630, "cr": 1631, "smooth": 1632, "range": 1633, "sal": 1634, "aim": 1635, "hard": 1636, "setting": 1637, "appearance": 1638, "bed": 1639, "future": 1640, "system": 1641, "conditions": 1642, "audi": 1643, "current": 1644, "details": 1645, "hab": 1646, "projec": 1647, "settings": 1648, "Focus": 1649, "fr": 1650, "ners": 1651, "connections": 1652, "Le": 1653, "oil": 1654, "pay": 1655, "review": 1656, "preferences": 1657, "Fam": 1658, "start": 1659, "ought": 1660, "oogle": 1661, "wear": 1662, "successful": 1663, "Des": 1664, "methods": 1665, "uine": 1666, "ouch": 1667, "via": 1668, "frequ": 1669, "relax": 1670, "suppor": 1671, "thin": 1672, "number": 1673, "docu": 1674, "cis": 1675, "ime": 1676, "confidence": 1677, "Pri": 1678, "fresh": 1679, "ards": 1680, "three": 1681, "Di": 1682, "Don": 1683, "asy": 1684, "Clean": 1685, "equi": 1686, "icial": 1687, "fost": 1688, "avor": 1689, "lu": 1690, "associated": 1691, "At": 1692, "directly": 1693, "loy": 1694, "Prepare": 1695, "adv": 1696, "post": 1697, "Apply": 1698, "relevant": 1699, "upon": 1700, "00": 1701, "We": 1702, "treat": 1703, "ants": 1704, "ither": 1705, "utri": 1706, "involves": 1707, "indows": 1708, "ove": 1709, "instru": 1710, "attemp": 1711, "Stay": 1712, "user": 1713, "surface": 1714, "cloth": 1715, "tle": 1716, "team": 1717, "wel": 1718, "hoto": 1719, "particip": 1720, "secure": 1721, "Bui": 1722, "base": 1723, "xi": 1724, "entire": 1725, "proceed": 1726, "optimal": 1727, "non": 1728, "promp": 1729, "Rese": 1730, "made": 1731, "Allow": 1732, "exercise": 1733, "bound": 1734, "adi": 1735, "works": 1736, "Check": 1737, "location": 1738, "aps": 1739, "applying": 1740, "Research": 1741, "compon": 1742, "building": 1743, "secon": 1744, "simil": 1745, "reci": 1746, "community": 1747, "breath": 1748, "temper": 1749, "minimize": 1750, "ult": 1751, "pose": 1752, "school": 1753, "remember": 1754, "once": 1755, "iled": 1756, "suitable": 1757, "ules": 1758, "moist": 1759, "emotions": 1760, "basic": 1761, "stic": 1762, "bur": 1763, "plac": 1764, "engage": 1765, "products": 1766, "device": 1767, "fied": 1768, "emb": 1769, "yet": 1770, "atis": 1771, "challenging": 1772, "ot": 1773, "spo": 1774, "stay": 1775, "mix": 1776, "bri": 1777, "ended": 1778, "eyes": 1779, "flu": 1780, "emotional": 1781, "behavior": 1782, "lock": 1783, "text": 1784, "Google": 1785, "Off": 1786, "change": 1787, "Mon": 1788, "Man": 1789, "ire": 1790, "ori": 1791, "assist": 1792, "llabor": 1793, "nega": 1794, "genuine": 1795, "similar": 1796, "trust": 1797, "elements": 1798, "hours": 1799, "fill": 1800, "state": 1801, "maxim": 1802, "mode": 1803, "express": 1804, "easier": 1805, "leng": 1806, "ouble": 1807, "chan": 1808, "Sk": 1809, "least": 1810, "requirements": 1811, "she": 1812, "ancing": 1813, "lies": 1814, "does": 1815, "ready": 1816, "accordingly": 1817, "Engage": 1818, "someone": 1819, "Share": 1820, "thoroughly": 1821, "ens": 1822, "oosing": 1823, "cies": 1824, "appy": 1825, "environment": 1826, "many": 1827, "lower": 1828, "Place": 1829, "conversations": 1830, "gent": 1831, "sition": 1832, "ligh": 1833, "expect": 1834, "pressure": 1835, "slightly": 1836, "ouse": 1837, "eces": 1838, "aster": 1839, "thoughts": 1840, "lid": 1841, "install": 1842, "gain": 1843, "hal": 1844, "role": 1845, "Ar": 1846, "Look": 1847, "Over": 1848, "ues": 1849, "rece": 1850, "mem": 1851, "exist": 1852, "cessive": 1853, "effective": 1854, "proble": 1855, "words": 1856, "eti": 1857, "training": 1858, "immedi": 1859, "tivate": 1860, "insights": 1861, "Cl": 1862, "hes": 1863, ".\"": 1864, "case": 1865, "ason": 1866, "book": 1867, "select": 1868, "purch": 1869, "affec": 1870, "either": 1871, "ially": 1872, "tif": 1873, "program": 1874, "file": 1875, "my": 1876, "table": 1877, "matic": 1878, "shop": 1879, "button": 1880, "sibility": 1881, "istic": 1882, "bot": 1883, "colors": 1884, "concerns": 1885, "cra": 1886, "cusing": 1887, "Su": 1888, "stre": 1889, "identi": 1890, "visual": 1891, "iev": 1892, "earn": 1893, "successfully": 1894, "Ob": 1895, "eds": 1896, "cause": 1897, "rup": 1898, "sources": 1899, "research": 1900, "ank": 1901, "above": 1902, "tern": 1903, "typically": 1904, "cum": 1905, "nutri": 1906, "ines": 1907, "reli": 1908, "lif": 1909, "abs": 1910, "heat": 1911, "assess": 1912, "short": 1913, "optional": 1914, "pects": 1915, "fab": 1916, "hold": 1917, "mal": 1918, "ww": 1919, "tend": 1920, "impact": 1921, "exercis": 1922, "Te": 1923, "makes": 1924, "appreci": 1925, "provides": 1926, "value": 1927, "They": 1928, "manage": 1929, "complex": 1930, "Opt": 1931, "platforms": 1932, "easy": 1933, "adding": 1934, "focusing": 1935, "word": 1936, "still": 1937, "components": 1938, "mun": 1939, "atters": 1940, "simp": 1941, "trac": 1942, "ssess": 1943, "media": 1944, "hum": 1945, "ise": 1946, "simple": 1947, "ries": 1948, "games": 1949, "later": 1950, "ask": 1951, "courage": 1952, "pieces": 1953, "Take": 1954, "pecially": 1955, "last": 1956, "especially": 1957, "aspects": 1958, "among": 1959, "ups": 1960, "els": 1961, "perfect": 1962, "depth": 1963, "eld": 1964, "wash": 1965, "itation": 1966, "upd": 1967, "tasks": 1968, "cted": 1969, "display": 1970, "group": 1971, "foot": 1972, "Familiarize": 1973, "*:": 1974, "Do": 1975, "pu": 1976, "story": 1977, "section": 1978, "shape": 1979, "excessive": 1980, "thentic": 1981, "development": 1982, "sleep": 1983, "match": 1984, "pub": 1985, "ray": 1986, "usu": 1987, "guidance": 1988, "bs": 1989, "pass": 1990, "int": 1991, "services": 1992, "tude": 1993, "aware": 1994, "dent": 1995, "fru": 1996, "verse": 1997, "taking": 1998, "energy": 1999, "bottom": 2000, "ctr": 2001, "Ap": 2002, "sli": 2003, "slow": 2004, "def": 2005, "expl": 2006, "persist": 2007, "fig": 2008, "Guide": 2009, "ion": 2010, "foundation": 2011, "Go": 2012, "Pay": 2013, "la": 2014, "satis": 2015, "phone": 2016, "'.": 2017, "users": 2018, "journey": 2019, "Out": 2020, "thought": 2021, "alls": 2022, "reduces": 2023, "Utilize": 2024, "anim": 2025, "ars": 2026, "selecting": 2027, "challenges": 2028, "his": 2029, "initi": 2030, "players": 2031, "parents": 2032, "Time": 2033, "fing": 2034, "wa": 2035, "ource": 2036, "box": 2037, "effort": 2038, "Get": 2039, "ki": 2040, "ism": 2041, "world": 2042, "early": 2043, "itch": 2044, "stry": 2045, "break": 2046, "page": 2047, "photo": 2048, "uter": 2049, "================================": 2050, "cool": 2051, "dig": 2052, "aming": 2053, "class": 2054, "known": 2055, "sw": 2056, "teach": 2057, "cles": 2058, "Proper": 2059, "Hel": 2060, "Str": 2061, "activity": 2062, "sharing": 2063, "full": 2064, "strengthen": 2065, "hands": 2066, "ination": 2067, "risk": 2068, "bon": 2069, "pet": 2070, "consult": 2071, "Determine": 2072, "routine": 2073, "sessions": 2074, "oper": 2075, "year": 2076, "enter": 2077, "everyone": 2078, "files": 2079, "Seek": 2080, "quickly": 2081, "Windows": 2082, "eness": 2083, "shad": 2084, "tract": 2085, "gradually": 2086, "peat": 2087, "educ": 2088, "Comprehensive": 2089, "Fe": 2090, "List": 2091, "hon": 2092, "left": 2093, "mee": 2094, "product": 2095, "situation": 2096, "chances": 2097, "Consult": 2098, "tai": 2099, "styles": 2100, "conversation": 2101, "Access": 2102, "``": 2103, "prin": 2104, "inside": 2105, "deli": 2106, "constru": 2107, "achie": 2108, "perspec": 2109, "large": 2110, "practices": 2111, "Care": 2112, "bus": 2113, "determine": 2114, "achiev": 2115, "Monitor": 2116, "sho": 2117, "expo": 2118, "whenever": 2119, "consu": 2120, "therap": 2121, "corner": 2122, "locate": 2123, "Plan": 2124, "tures": 2125, "continu": 2126, "feedback": 2127, "length": 2128, "exercises": 2129, "hob": 2130, "benefits": 2131, "land": 2132, "alu": 2133, "faces": 2134, "boundaries": 2135, "tailored": 2136, "Schedule": 2137, "oring": 2138, "sib": 2139, "ulations": 2140, "gather": 2141, "decision": 2142, "Wor": 2143, "devices": 2144, "loss": 2145, "give": 2146, "contribute": 2147, "//": 2148, "next": 2149, "ications": 2150, "white": 2151, "initial": 2152, "graph": 2153, "bag": 2154, "race": 2155, "week": 2156, "Begin": 2157, "thu": 2158, "helpful": 2159, "cept": 2160, "Happy": 2161, "bow": 2162, "tly": 2163, "careful": 2164, "leading": 2165, "ancial": 2166, "alterna": 2167, "semb": 2168, "been": 2169, "extra": 2170, "amoun": 2171, "designed": 2172, "shared": 2173, "navigate": 2174, "expectations": 2175, "indu": 2176, "doing": 2177, "Open": 2178, "music": 2179, "finding": 2180, "finish": 2181, "Bre": 2182, "py": 2183, "Encourage": 2184, "listening": 2185, "books": 2186, "Settings": 2187, "smaller": 2188, "habits": 2189, "touch": 2190, "vo": 2191, "forward": 2192, "electr": 2193, "mission": 2194, "much": 2195, "crip": 2196, "diffic": 2197, "Exp": 2198, "Understanding": 2199, "situations": 2200, "incorporating": 2201, "pack": 2202, "was": 2203, "reput": 2204, "ils": 2205, "opt": 2206, "Experi": 2207, "completely": 2208, "ima": 2209, "sol": 2210, "tore": 2211, "Instead": 2212, "provided": 2213, "meaning": 2214, "Now": 2215, "roun": 2216, "few": 2217, "keeping": 2218, "Prior": 2219, "instructions": 2220, "Appro": 2221, "bro": 2222, "iP": 2223, "tware": 2224, "tered": 2225, "dedication": 2226, "authentic": 2227, "improvement": 2228, "promote": 2229, "://": 2230, "Gather": 2231, "Mater": 2232, "Vi": 2233, "insp": 2234, "rub": 2235, "uses": 2236, "Play": 2237, "cooking": 2238, "advice": 2239, "tyle": 2240, "connect": 2241, "Li": 2242, "pr": 2243, "aves": 2244, "desired": 2245, "Dec": 2246, "cro": 2247, "mut": 2248, "added": 2249, "planning": 2250, "seeking": 2251, "origin": 2252, "High": 2253, "Or": 2254, "bit": 2255, "test": 2256, "deta": 2257, "offering": 2258, "athy": 2259, "detailed": 2260, "gri": 2261, "night": 2262, "ecu": 2263, "paration": 2264, "htt": 2265, "would": 2266, "result": 2267, "exper": 2268, "apps": 2269, "higher": 2270, "Show": 2271, "anced": 2272, "ront": 2273, "prioritize": 2274, "structure": 2275, "mes": 2276, "flexi": 2277, "Col": 2278, "ining": 2279, "reinfor": 2280, "ator": 2281, "shap": 2282, "motiv": 2283, "option": 2284, "Adjust": 2285, "clothing": 2286, "study": 2287, "ink": 2288, "ane": 2289, "seek": 2290, "Commun": 2291, "interactions": 2292, "getting": 2293, "integr": 2294, "employ": 2295, "US": 2296, "iding": 2297, "adap": 2298, "soap": 2299, "takes": 2300, "days": 2301, "larger": 2302, "immediately": 2303, "dur": 2304, "sitive": 2305, "icon": 2306, "poli": 2307, "period": 2308, "ills": 2309, "There": 2310, "flow": 2311, "ressive": 2312, "becoming": 2313, "distr": 2314, "excess": 2315, "stra": 2316, "Connec": 2317, "engagement": 2318, "signs": 2319, "mark": 2320, "website": 2321, "Bo": 2322, "tch": 2323, "condition": 2324, "agree": 2325, "bring": 2326, "consistency": 2327, "groups": 2328, "fish": 2329, "kind": 2330, "core": 2331, "hind": 2332, "having": 2333, "lab": 2334, "edges": 2335, "kets": 2336, "usage": 2337, "note": 2338, "personality": 2339, "management": 2340, "mindful": 2341, "measure": 2342, "Pers": 2343, "recor": 2344, "method": 2345, "cred": 2346, "final": 2347, "consistently": 2348, "prepared": 2349, "Find": 2350, "dge": 2351, "introdu": 2352, "astic": 2353, "dire": 2354, "parts": 2355, "connection": 2356, "increases": 2357, "public": 2358, "af": 2359, "dress": 2360, "pment": 2361, "unch": 2362, "encourage": 2363, "sequ": 2364, "tenance": 2365, "priv": 2366, "playing": 2367, "organiz": 2368, "video": 2369, "usually": 2370, "Bl": 2371, "financial": 2372, "evalu": 2373, "offers": 2374, "bies": 2375, "order": 2376, "sugg": 2377, "ounds": 2378, "previ": 2379, "indic": 2380, "relaxation": 2381, "negative": 2382, "xie": 2383, "siz": 2384, "ably": 2385, "menting": 2386, "ilit": 2387, "----------------------------": 2388, "menu": 2389, "achieve": 2390, "business": 2391, "straight": 2392, "Having": 2393, "New": 2394, "sun": 2395, "prevents": 2396, "speed": 2397, "Clear": 2398, "dget": 2399, "gs": 2400, "matters": 2401, "ple": 2402, "Inst": 2403, "material": 2404, "remaining": 2405, "fosters": 2406, "something": 2407, "storage": 2408, "moisture": 2409, "30": 2410, "image": 2411, "rules": 2412, "arm": 2413, "aren": 2414, "hydr": 2415, "handling": 2416, "longer": 2417, "tren": 2418, "sets": 2419, "sections": 2420, "lights": 2421, "foster": 2422, "choices": 2423, "looking": 2424, "strength": 2425, "muscle": 2426, "audience": 2427, "proceeding": 2428, "existing": 2429, "Materials": 2430, "Loc": 2431, "ys": 2432, "appe": 2433, "swe": 2434, "acts": 2435, "collabor": 2436, "avo": 2437, "Optional": 2438, "veget": 2439, "monitor": 2440, "recommended": 2441, "blo": 2442, "fol": 2443, "ler": 2444, "ici": 2445, "everything": 2446, "accurate": 2447, "Perform": 2448, "target": 2449, "Offer": 2450, "Prioritize": 2451, "20": 2452, "Learn": 2453, "toms": 2454, "software": 2455, "Jo": 2456, "sole": 2457, "compare": 2458, "Au": 2459, "house": 2460, "professionals": 2461, "logy": 2462, "harm": 2463, "attempting": 2464, "categ": 2465, "eli": 2466, "accomp": 2467, "spac": 2468, "crea": 2469, "obtain": 2470, "download": 2471, "specifically": 2472, "dents": 2473, "nature": 2474, "tone": 2475, "analy": 2476, "wise": 2477, "suits": 2478, "ict": 2479, "document": 2480, "Sup": 2481, "tight": 2482, "outh": 2483, "acting": 2484, "computer": 2485, "encoun": 2486, "makeup": 2487, "second": 2488, "mutual": 2489, "job": 2490, "reas": 2491, "remo": 2492, "anti": 2493, "tooth": 2494, "icated": 2495, "compati": 2496, "goal": 2497, "ideas": 2498, "hobbies": 2499, "Cal": 2500, "service": 2501, "Alterna": 2502, "subjec": 2503, "amples": 2504, "enables": 2505, "behind": 2506, "drawing": 2507, "glass": 2508, "half": 2509, "Ty": 2510, "aid": 2511, "must": 2512, "pair": 2513, "pie": 2514, "lig": 2515, "meet": 2516, "weak": 2517, "parties": 2518, "informed": 2519, "Contin": 2520, "temperature": 2521, "past": 2522, "stances": 2523, "unnecessary": 2524, "competi": 2525, "explore": 2526, "reading": 2527, "topics": 2528, "fabric": 2529, "lips": 2530, "choosing": 2531, "tru": 2532, "calm": 2533, "calcul": 2534, "distribu": 2535, "Person": 2536, "represent": 2537, "recogn": 2538, "tious": 2539, "stain": 2540, "healthcare": 2541, "decisions": 2542, "recommend": 2543, "xiety": 2544, "say": 2545, "vary": 2546, "tee": 2547, "roo": 2548, "fel": 2549, "solid": 2550, "cat": 2551, "citing": 2552, "tor": 2553, "version": 2554, "feet": 2555, "enhances": 2556, "applications": 2557, "practicing": 2558, "objectives": 2559, "https": 2560, "piece": 2561, "aks": 2562, "je": 2563, "beli": 2564, "pected": 2565, "arily": 2566, "completing": 2567, "technique": 2568, "15": 2569, "Never": 2570, "ome": 2571, "referen": 2572, "acks": 2573, "invest": 2574, "websites": 2575, "err": 2576, "orn": 2577, "execu": 2578, "Comple": 2579, "four": 2580, "nor": 2581, "lip": 2582, "why": 2583, "attach": 2584, "preferred": 2585, "frequently": 2586, "simply": 2587, "num": 2588, "defin": 2589, "force": 2590, "catch": 2591, "wide": 2592, "writing": 2593, "squ": 2594, "avy": 2595, "dedicated": 2596, "same": 2597, "movement": 2598, "increased": 2599, "reducing": 2600, "systems": 2601, "cook": 2602, "Qu": 2603, "bing": 2604, "fra": 2605, "edge": 2606, "door": 2607, "depend": 2608, "running": 2609, "solution": 2610, "Emb": 2611, "Recogn": 2612, "pped": 2613, "akes": 2614, "assistance": 2615, "exposure": 2616, "pic": 2617, "tially": 2618, "sil": 2619, "rive": 2620, "ift": 2621, "clar": 2622, "background": 2623, "occur": 2624, "protect": 2625, "containing": 2626, "Buil": 2627, "gentle": 2628, "hic": 2629, "uri": 2630, "thetic": 2631, "compo": 2632, "Inter": 2633, "prim": 2634, "Store": 2635, "code": 2636, "ribut": 2637, "event": 2638, "surfaces": 2639, "located": 2640, "save": 2641, "Each": 2642, "Press": 2643, "flo": 2644, "confirm": 2645, "ipate": 2646, "ause": 2647, "critical": 2648, "Design": 2649, "dark": 2650, "hood": 2651, "ense": 2652, "mag": 2653, "expres": 2654, "manu": 2655, "intel": 2656, "fficient": 2657, "lighting": 2658, "Ser": 2659, "double": 2660, "rate": 2661, "secur": 2662, "sum": 2663, "abling": 2664, "Repeat": 2665, "industry": 2666, "security": 2667, "Na": 2668, "happ": 2669, "sis": 2670, "separ": 2671, "cele": 2672, "exciting": 2673, "preser": 2674, "black": 2675, "Regular": 2676, "children": 2677, ".'": 2678, "cand": 2679, "wan": 2680, "influ": 2681, "empathy": 2682, "patient": 2683, "Gradually": 2684, "One": 2685, "bul": 2686, "law": 2687, "anxiety": 2688, "asking": 2689, "Remove": 2690, "causing": 2691, "numbers": 2692, "friendship": 2693, "favor": 2694, "tre": 2695, "ware": 2696, "wood": 2697, "erous": 2698, "site": 2699, "Consist": 2700, "Inte": 2701, "imple": 2702, "five": 2703, "evenly": 2704, ",\"": 2705, "mat": 2706, "swi": 2707, "actively": 2708, "lit": 2709, "forts": 2710, "love": 2711, "conven": 2712, "task": 2713, "horiz": 2714, "creativity": 2715, "Basic": 2716, "onge": 2717, "stage": 2718, "dients": 2719, "obser": 2720, "Also": 2721, "resili": 2722, "commitment": 2723, "avoiding": 2724, "Partic": 2725, "vital": 2726, "terms": 2727, "explan": 2728, "irl": 2729, "What": 2730, "lifes": 2731, "original": 2732, "Sy": 2733, "cup": 2734, "penc": 2735, "alog": 2736, "isn": 2737, "iter": 2738, "chec": 2739, "outside": 2740, "properly": 2741, "circum": 2742, "explanations": 2743, "emer": 2744, "vol": 2745, "expand": 2746, "increasing": 2747, "promoting": 2748, "shows": 2749, "mid": 2750, "wish": 2751, "enable": 2752, "angle": 2753, "foods": 2754, "Hair": 2755, "things": 2756, "rich": 2757, "ird": 2758, "party": 2759, "counts": 2760, "medical": 2761, "procedu": 2762, "achieving": 2763, "ying": 2764, "efforts": 2765, "familiar": 2766, "network": 2767, "ternal": 2768, "meaningful": 2769, "ributes": 2770, "',": 2771, "Are": 2772, "call": 2773, "front": 2774, "asp": 2775, "irr": 2776, "maintenance": 2777, "travel": 2778, "Creating": 2779, "promotes": 2780, "demonstrate": 2781, "zer": 2782, "determin": 2783, "iration": 2784, "movements": 2785, "occa": 2786, "involved": 2787, "digital": 2788, "Alternatively": 2789, "ied": 2790, "tire": 2791, "ators": 2792, "excell": 2793, "jump": 2794, "targe": 2795, "Emp": 2796, "window": 2797, "zz": 2798, "outer": 2799, "dir": 2800, "diet": 2801, "slowly": 2802, "celebr": 2803, "Face": 2804, "fas": 2805, "sch": 2806, "advant": 2807, "usted": 2808, "plants": 2809, "timately": 2810, "valid": 2811, "accessories": 2812, "changing": 2813, "encourages": 2814, "discussions": 2815, "message": 2816, "ders": 2817, "rates": 2818, "inner": 2819, "ulation": 2820, "tiveness": 2821, "anging": 2822, "official": 2823, "clearly": 2824, "texture": 2825, "legs": 2826, "projects": 2827, "Spe": 2828, "Sub": 2829, "Save": 2830, "dead": 2831, "cost": 2832, "Enter": 2833, "flat": 2834, "wellbeing": 2835, "behaviors": 2836, "rounding": 2837, "manufact": 2838, "lls": 2839, "mini": 2840, "budget": 2841, "guideline": 2842, "frain": 2843, "Good": 2844, "arti": 2845, "live": 2846, "ulate": 2847, "bey": 2848, "master": 2849, "tradi": 2850, "acknow": 2851, "hot": 2852, "potentially": 2853, "objects": 2854, "honest": 2855, "amount": 2856, "Aim": 2857, "Cul": 2858, "Down": 2859, "ID": 2860, "OS": 2861, "Rec": 2862, "orts": 2863, "stability": 2864, "atus": 2865, "vision": 2866, "pping": 2867, "acters": 2868, "risks": 2869, "solutions": 2870, "Explore": 2871, "Ide": 2872, "](": 2873, "card": 2874, "leaving": 2875, "realistic": 2876, "organizations": 2877, "Building": 2878, "vity": 2879, "tise": 2880, "toward": 2881, "ression": 2882, "poses": 2883, "correctly": 2884, "equipment": 2885, "awareness": 2886, "resilience": 2887, "Is": 2888, "Pur": 2889, "Part": 2890, "ai": 2891, "hone": 2892, "stim": 2893, "ading": 2894, "creates": 2895, "Review": 2896, "author": 2897, "balanced": 2898, "):": 2899, "Bu": 2900, "Click": 2901, "Lo": 2902, "mor": 2903, "oud": 2904, "dee": 2905, "season": 2906, "sufficient": 2907, "below": 2908, "ams": 2909, "------------------------": 2910, "auto": 2911, "trying": 2912, "jud": 2913, "stick": 2914, "thusi": 2915, "sugges": 2916, "Master": 2917, "mouth": 2918, "ingre": 2919, "meals": 2920, "loves": 2921, "mptoms": 2922, "expected": 2923, "Then": 2924, "ails": 2925, "messages": 2926, "Techniqu": 2927, "reputable": 2928, "flexibility": 2929, "Ver": 2930, "characters": 2931, "remains": 2932, "Meas": 2933, "promptly": 2934, "VD": 2935, "fast": 2936, "him": 2937, "watch": 2938, "ensive": 2939, "wiki": 2940, "outlin": 2941, "intern": 2942, "cused": 2943, "sense": 2944, "platform": 2945, "continue": 2946, "breathing": 2947, "sibilities": 2948, "distractions": 2949, "nam": 2950, "twi": 2951, "enthusi": 2952, "costs": 2953, "term": 2954, "Provide": 2955, "bris": 2956, "layers": 2957, "Listen": 2958, "Install": 2959, "aes": 2960, "ix": 2961, "rap": 2962, "whel": 2963, "inj": 2964, "arp": 2965, "ades": 2966, "height": 2967, "true": 2968, "creative": 2969, "plays": 2970, "olution": 2971, "fellow": 2972, "frame": 2973, "circumstances": 2974, "beyond": 2975, "Sa": 2976, "tap": 2977, "enses": 2978, "rip": 2979, "quate": 2980, "foli": 2981, "apply": 2982, "urer": 2983, "engu": 2984, "locks": 2985, "preference": 2986, "accuracy": 2987, "persistence": 2988, "compared": 2989, "Navig": 2990, "Med": 2991, "utili": 2992, "acade": 2993, "lim": 2994, "ower": 2995, "hion": 2996, "career": 2997, "center": 2998, "layer": 2999, "closely": 3000, "article": 3001, "project": 3002, "Skills": 3003, "PS": 3004, "Right": 3005, "Sm": 3006, "great": 3007, "mand": 3008, "pul": 3009, "inches": 3010, "repe": 3011, "experienced": 3012, "transp": 3013, "trends": 3014, "excellent": 3015, "Assess": 3016, "From": 3017, "kne": 3018, "path": 3019, "ads": 3020, "polish": 3021, "focused": 3022, "format": 3023, "else": 3024, "overwhel": 3025, "ximately": 3026, "programs": 3027, "password": 3028, "shoes": 3029, "Imple": 3030, "Let": 3031, "Try": 3032, "ken": 3033, "mist": 3034, "schedule": 3035, "source": 3036, "worth": 3037, "Pok": 3038, "Common": 3039, "doesn": 3040, "recei": 3041, "Organ": 3042, "Ask": 3043, "During": 3044, "enge": 3045, "simul": 3046, "very": 3047, "likeli": 3048, "Build": 3049, "maximize": 3050, "Pok\u00e9": 3051, "band": 3052, "inves": 3053, "sting": 3054, "aged": 3055, "grati": 3056, "followed": 3057, "scen": 3058, "trigg": 3059, "problem": 3060, "blood": 3061, "Personal": 3062, "likelihood": 3063, "Dep": 3064, "Imp": 3065, "dence": 3066, "eks": 3067, "ior": 3068, "restr": 3069, "arrow": 3070, "liqui": 3071, "visit": 3072, "upper": 3073, "videos": 3074, "cutting": 3075, "appreciation": 3076, "Im": 3077, "cam": 3078, "leave": 3079, "assign": 3080, "accomplish": 3081, "manufacturer": 3082, "roll": 3083, "acking": 3084, "money": 3085, "surance": 3086, "field": 3087, "enhancing": 3088, "qualities": 3089, "Embrace": 3090, "Bal": 3091, "limit": 3092, "external": 3093, "pot": 3094, "compro": 3095, "discover": 3096, "plans": 3097, "developing": 3098, "www": 3099, "Work": 3100, "Experiment": 3101, "egg": 3102, "vest": 3103, "input": 3104, "ont": 3105, "ury": 3106, "--------------------": 3107, "Being": 3108, "asts": 3109, "helping": 3110, "facilit": 3111, "organization": 3112, "placing": 3113, "updates": 3114, "enguin": 3115, "Back": 3116, "Test": 3117, "bec": 3118, "licate": 3119, "locations": 3120, "------------------------------------": 3121, "guar": 3122, "Method": 3123, "drop": 3124, "absor": 3125, "Carefully": 3126, "aff": 3127, "ahead": 3128, "ition": 3129, "ods": 3130, "oga": 3131, "pes": 3132, "sn": 3133, "won": 3134, "alco": 3135, "Poke": 3136, "drive": 3137, "addressing": 3138, "shapes": 3139, "solely": 3140, "12": 3141, "aut": 3142, "return": 3143, "Cur": 3144, "Ed": 3145, "fall": 3146, "scal": 3147, "recip": 3148, "train": 3149, "agg": 3150, "goti": 3151, "sensitive": 3152, "loose": 3153, "purpose": 3154, "instance": 3155, "enjoyable": 3156, "gratitude": 3157, "status": 3158, "six": 3159, "apping": 3160, "item": 3161, "shops": 3162, "ligence": 3163, "Pok\u00e9mon": 3164, "Cus": 3165, "arms": 3166, "becomes": 3167, "spray": 3168, "Refle": 3169, "nose": 3170, "interrup": 3171, "profile": 3172, "coverage": 3173, "finger": 3174, "aneously": 3175, "adapt": 3176, "tape": 3177, "reques": 3178, "sides": 3179, "diving": 3180, "sharp": 3181, "forming": 3182, "paring": 3183, "surrounding": 3184, "answ": 3185, "approximately": 3186, "communities": 3187, "handle": 3188, "Analy": 3189, "built": 3190, "channe": 3191, "deeper": 3192, "Safe": 3193, "Fill": 3194, "ious": 3195, "mas": 3196, "acces": 3197, "metic": 3198, "heart": 3199, "diag": 3200, "utter": 3201, "elf": 3202, "adequate": 3203, "ketch": 3204, "documents": 3205, "purchasing": 3206, "years": 3207, "therapy": 3208, "alternative": 3209, "Sur": 3210, "Water": 3211, "bles": 3212, "recover": 3213, "enabling": 3214, "lect": 3215, "ership": 3216, "stration": 3217, "applicable": 3218, "strengths": 3219, "adjustments": 3220, "treatment": 3221, "reference": 3222, "because": 3223, "hoo": 3224, "assion": 3225, "sue": 3226, "conve": 3227, "urt": 3228, "symptoms": 3229, "tempor": 3230, "Attend": 3231, "sizes": 3232, "wanted": 3233, "Lim": 3234, "R0": 3235, "evi": 3236, "gment": 3237, "reve": 3238, "towel": 3239, "moment": 3240, "trusted": 3241, "weather": 3242, "tick": 3243, "requiring": 3244, "Apple": 3245, "ideal": 3246, "rink": 3247, "centr": 3248, "reflect": 3249, "education": 3250, "vegetables": 3251, "ingredients": 3252, "..": 3253, "Effec": 3254, "bacter": 3255, "mming": 3256, "nit": 3257, "utr": 3258, "acci": 3259, "link": 3260, "elds": 3261, "periods": 3262, "Star": 3263, "ardless": 3264, "improving": 3265, "blue": 3266, "request": 3267, "legal": 3268, "push": 3269, "motivation": 3270, "USB": 3271, "Hand": 3272, "tech": 3273, "uni": 3274, "heavy": 3275, "moder": 3276, "possess": 3277, "earning": 3278, "Stu": 3279, "meditation": 3280, "camp": 3281, "Anim": 3282, "opportunity": 3283, "store": 3284, "fostering": 3285, "installation": 3286, "perspectives": 3287, "Connect": 3288, "achievements": 3289, "oul": 3290, "vehic": 3291, "aby": 3292, "dialog": 3293, "strain": 3294, "formul": 3295, "Confirm": 3296, "selected": 3297, "More": 3298, "intended": 3299, "general": 3300, "paint": 3301, "fashion": 3302, "50": 3303, "cas": 3304, "fting": 3305, "osity": 3306, "tionally": 3307, "avors": 3308, "notice": 3309, "discomfort": 3310, "giene": 3311, "appropriately": 3312, "problems": 3313, "Club": 3314, "Docu": 3315, "strengthens": 3316, "numerous": 3317, "Custom": 3318, "antic": 3319, "super": 3320, "cons": 3321, "concep": 3322, "warding": 3323, "nesses": 3324, "culture": 3325, "confident": 3326, "powder": 3327, "Respect": 3328, "demonstrates": 3329, "difficult": 3330, "compatibility": 3331, "recommendations": 3332, "Gently": 3333, "bra": 3334, "aler": 3335, "alle": 3336, "apart": 3337, "moments": 3338, "created": 3339, "compan": 3340, "Yourself": 3341, "Comb": 3342, "stem": 3343, "join": 3344, "minimal": 3345, "extensive": 3346, "advanced": 3347, "craft": 3348, "Complete": 3349, "ets": 3350, "late": 3351, "inations": 3352, "decor": 3353, "diverse": 3354, "sphere": 3355, "Prof": 3356, "curi": 3357, "market": 3358, "olume": 3359, "horse": 3360, "incorporate": 3361, "clothes": 3362, "reinforce": 3363, "Know": 3364, "gree": 3365, "groom": 3366, "rain": 3367, "tab": 3368, "wri": 3369, "already": 3370, "appoint": 3371, "peers": 3372, "ists": 3373, "considering": 3374, "facial": 3375, "Address": 3376, "Note": 3377, "micro": 3378, "errors": 3379, "Participate": 3380, "dirt": 3381, "bond": 3382, "cases": 3383, "cross": 3384, "resist": 3385, "living": 3386, "mechan": 3387, "dili": 3388, "angles": 3389, "single": 3390, "gging": 3391, "syn": 3392, "responses": 3393, "cautious": 3394, "drying": 3395, "browser": 3396, "thinking": 3397, "seconds": 3398, "```": 3399, "Nec": 3400, "Run": 3401, "ier": 3402, "yi": 3403, "thick": 3404, "dele": 3405, "cos": 3406, "verbal": 3407, "neck": 3408, "history": 3409, "dynam": 3410, "ashes": 3411, "respond": 3412, "empha": 3413, "tton": 3414, "involve": 3415, "useful": 3416, "container": 3417, "efficiently": 3418, "muscles": 3419, "electron": 3420, "Spec": 3421, "outs": 3422, "months": 3423, "Enjoy": 3424, "naturally": 3425, "accurately": 3426, "Fri": 3427, "exam": 3428, "species": 3429, "screw": 3430, "spots": 3431, "bags": 3432, "spaces": 3433, "fits": 3434, "plu": 3435, "tension": 3436, "credi": 3437, "Read": 3438, "quiet": 3439, "pets": 3440, "fire": 3441, "scr": 3442, "whole": 3443, "speak": 3444, "efficient": 3445, "payment": 3446, "elimin": 3447, "Necessary": 3448, "Double": 3449, "Evalu": 3450, "IP": 3451, "wall": 3452, "acqui": 3453, "seam": 3454, "vir": 3455, "dify": 3456, "ols": 3457, "licking": 3458, "dish": 3459, "caused": 3460, "maximum": 3461, "matically": 3462, "thoughtful": 3463, "Helps": 3464, "records": 3465, "11": 3466, "Sim": 3467, "had": 3468, "ped": 3469, "pun": 3470, "teen": 3471, "wid": 3472, "bel": 3473, "dies": 3474, "mast": 3475, "opini": 3476, "izes": 3477, "tivating": 3478, "managing": 3479, "going": 3480, "notes": 3481, "seem": 3482, "traits": 3483, "protection": 3484, "green": 3485, "Space": 3486, "solving": 3487, "previous": 3488, "Join": 3489, "Fire": 3490, "ait": 3491, "girl": 3492, "mach": 3493, "round": 3494, "song": 3495, "reson": 3496, "unte": 3497, "mood": 3498, "descrip": 3499, "Account": 3500, "distance": 3501, "taste": 3502, "functionality": 3503, "expressing": 3504, "perspective": 3505, "Break": 3506, "Appropri": 3507, "Recognize": 3508, "ongevity": 3509, "Navigate": 3510, "Pokemon": 3511, "utral": 3512, ".)": 3513, "Dry": 3514, "My": 3515, "Self": 3516, "Tur": 3517, "cular": 3518, "longevity": 3519, "rag": 3520, "removing": 3521, "titude": 3522, "ced": 3523, "means": 3524, "compli": 3525, "appli": 3526, "strategy": 3527, "equipped": 3528, "direction": 3529, "primary": 3530, "Techniques": 3531, "injury": 3532, "alcohol": 3533, "Reflect": 3534, "cks": 3535, "dates": 3536, "names": 3537, "sound": 3538, "shel": 3539, "inse": 3540, "condu": 3541, "config": 3542, "visi": 3543, "connecting": 3544, "submit": 3545, "Social": 3546, "performing": 3547, "partner": 3548, "discuss": 3549, "receive": 3550, "animal": 3551, "lifestyle": 3552, "simult": 3553, "liquid": 3554, "Clo": 3555, "Mic": 3556, "ety": 3557, "rics": 3558, "rewarding": 3559, "lier": 3560, "iles": 3561, "wels": 3562, "player": 3563, "particular": 3564, "confidently": 3565, "paste": 3566, "pencil": 3567, "occasion": 3568, "Animal": 3569, "dra": 3570, "ease": 3571, "toes": 3572, "attr": 3573, "dealing": 3574, "adds": 3575, "eding": 3576, "ified": 3577, "cious": 3578, "Refrain": 3579, "indicate": 3580, "cuts": 3581, "organized": 3582, "meeting": 3583, "guaran": 3584, "Tri": 3585, "avi": 3586, "gloves": 3587, "towels": 3588, "forget": 3589, "mob": 3590, "never": 3591, "commo": 3592, "communicate": 3593, "connected": 3594, "Health": 3595, "safely": 3596, "challenge": 3597, "friendly": 3598, "established": 3599, "welry": 3600, "hesive": 3601, "lasting": 3602, "sched": 3603, "Ro": 3604, "hit": 3605, "ient": 3606, "wo": 3607, "inary": 3608, "lets": 3609, "lications": 3610, "newly": 3611, "faction": 3612, "improved": 3613, "ttle": 3614, "Observe": 3615, "washing": 3616, "fingers": 3617, "Facebook": 3618, "Fi": 3619, "Val": 3620, "ute": 3621, "volume": 3622, "replace": 3623, "tis": 3624, "proof": 3625, "tual": 3626, "choice": 3627, "feeling": 3628, "effects": 3629, "responding": 3630, "missions": 3631, "distin": 3632, "voice": 3633, "academic": 3634, "Evaluate": 3635, "simultaneously": 3636, "Det": 3637, "Dress": 3638, "pup": 3639, "independ": 3640, "rot": 3641, "debris": 3642, "aspect": 3643, "visibility": 3644, "dimen": 3645, "regulations": 3646, "nail": 3647, "logs": 3648, "writ": 3649, "Needed": 3650, "posture": 3651, "filling": 3652, "satisfaction": 3653, "Help": 3654, "checking": 3655, "Penguin": 3656, "bir": 3657, "eve": 3658, "sco": 3659, "acles": 3660, "seeds": 3661, "cel": 3662, "concise": 3663, "unexpected": 3664, "unwanted": 3665, "dup": 3666, "ager": 3667, "damp": 3668, "counter": 3669, "certif": 3670, "designated": 3671, "Finally": 3672, "measures": 3673, "hips": 3674, "Need": 3675, "efficiency": 3676, "transition": 3677, "traditional": 3678, "Profession": 3679, "vac": 3680, "healing": 3681, "plastic": 3682, "compassion": 3683, "provider": 3684, "includes": 3685, "however": 3686, "listen": 3687, "----------------------------------------": 3688, "release": 3689, "Locate": 3690, "Cultivate": 3691, "Fir": 3692, "Net": 3693, "itive": 3694, "inch": 3695, "shir": 3696, "irit": 3697, "outfit": 3698, "iling": 3699, "Contro": 3700, "contributes": 3701, "Choosing": 3702, "nails": 3703, "interview": 3704, "fix": 3705, "manual": 3706, "tural": 3707, "techno": 3708, "width": 3709, "Draw": 3710, "La": 3711, "Lay": 3712, "eating": 3713, "equal": 3714, "fu": 3715, "quest": 3716, "Invest": 3717, "tax": 3718, "clubs": 3719, "likely": 3720, "earlier": 3721, "Example": 3722, "regi": 3723, "presence": 3724, "ledging": 3725, "giving": 3726, "subtle": 3727, "Most": 3728, "reaching": 3729, "kni": 3730, "privacy": 3731, "Implement": 3732, "niture": 3733, "fail": 3734, "sites": 3735, "conver": 3736, "ultimately": 3737, "feature": 3738, "actual": 3739, "Char": 3740, "Prote": 3741, "Position": 3742, "marks": 3743, "critic": 3744, "routines": 3745, "reviews": 3746, "exploring": 3747, "credit": 3748, "FR": 3749, "Sear": 3750, "baby": 3751, "dle": 3752, "oration": 3753, "toys": 3754, "accept": 3755, "accommo": 3756, "coat": 3757, "tric": 3758, "update": 3759, "dama": 3760, "responsible": 3761, "respectful": 3762, "clients": 3763, "burn": 3764, "statements": 3765, "Strateg": 3766, "Visit": 3767, "expertise": 3768, "encounter": 3769, "separate": 3770, "restric": 3771, "Sign": 3772, "gold": 3773, "pal": 3774, "refine": 3775, "alled": 3776, "cotton": 3777, "moves": 3778, "Through": 3779, "positions": 3780, "filled": 3781, "transfer": 3782, "supportive": 3783, "temperatures": 3784, "fruits": 3785, "constructive": 3786, "waste": 3787, "folder": 3788, "mistakes": 3789, "meticul": 3790, "Limit": 3791, "Air": 3792, "UR": 3793, "clicking": 3794, "gency": 3795, "sand": 3796, "accep": 3797, "metal": 3798, "respec": 3799, "shade": 3800, "plant": 3801, "weeks": 3802, "company": 3803, "Rel": 3804, "preparation": 3805, "Collabor": 3806, "medium": 3807, "particularly": 3808, "partners": 3809, "Secure": 3810, "participate": 3811, "continuous": 3812, "evidence": 3813, "mastering": 3814, "opinions": 3815, "Micro": 3816, "batt": 3817, "ox": 3818, "yout": 3819, "prove": 3820, "visible": 3821, "ongo": 3822, "encing": 3823, "positively": 3824, "phr": 3825, "harsh": 3826, "discussing": 3827, "alignment": 3828, "reliable": 3829, "princip": 3830, "iteria": 3831, "File": 3832, "Have": 3833, "equ": 3834, "rewards": 3835, "tely": 3836, "chest": 3837, "sugar": 3838, "verify": 3839, "outcomes": 3840, "auti": 3841, "obst": 3842, "interaction": 3843, "flavor": 3844, "installed": 3845, "speaking": 3846, "pressing": 3847, "holding": 3848, "supports": 3849, "spot": 3850, "Manage": 3851, "semble": 3852, "aspir": 3853, "outlined": 3854, "Import": 3855, "Analyze": 3856, "Document": 3857, "ongoing": 3858, "ny": 3859, "stories": 3860, "itable": 3861, "offe": 3862, "ulty": 3863, "weap": 3864, "sports": 3865, "noise": 3866, "lication": 3867, "processes": 3868, "workshops": 3869, "completed": 3870, "cues": 3871, "intensity": 3872, "memor": 3873, "identified": 3874, "initially": 3875, "broad": 3876, "iPhone": 3877, "Continue": 3878, "crow": 3879, "jac": 3880, "rely": 3881, "ened": 3882, "gear": 3883, "posts": 3884, "idden": 3885, "entials": 3886, "ferences": 3887, "Trans": 3888, "appreciate": 3889, "Type": 3890, "limits": 3891, "curiosity": 3892, "Upon": 3893, "aside": 3894, "block": 3895, "fH": 3896, "pick": 3897, "leaves": 3898, "crease": 3899, "willing": 3900, "hygiene": 3901, "iche": 3902, "brand": 3903, "leads": 3904, "response": 3905, "cultivate": 3906, "driving": 3907, "students": 3908, "brief": 3909, "satisfied": 3910, "Body": 3911, "Cut": 3912, "Dif": 3913, "gau": 3914, "vine": 3915, "cove": 3916, "loved": 3917, "plain": 3918, "soil": 3919, "negoti": 3920, "estones": 3921, "fiber": 3922, "Final": 3923, "stretch": 3924, "dental": 3925, "Decide": 3926, "categories": 3927, "bright": 3928, "fat": 3929, "ye": 3930, "atmo": 3931, "accum": 3932, "ains": 3933, "opting": 3934, "cannot": 3935, "selves": 3936, "Stand": 3937, "sometimes": 3938, "production": 3939, "aturity": 3940, "preventing": 3941, "capabilities": 3942, "participating": 3943, "human": 3944, "Goals": 3945, "alternatives": 3946, "kindness": 3947, "reasons": 3948, "First": 3949, "Fur": 3950, "Game": 3951, "gest": 3952, "yoga": 3953, "reactions": 3954, "ana": 3955, "limi": 3956, "unless": 3957, "ellow": 3958, "standing": 3959, "strugg": 3960, "cards": 3961, "Discus": 3962, "Maintaining": 3963, "generally": 3964, "brows": 3965, "Level": 3966, "Support": 3967, "Depending": 3968, "auty": 3969, "diligently": 3970, "Search": 3971, "limited": 3972, "Mac": 3973, "Tu": 3974, "pat": 3975, "sitions": 3976, "cold": 3977, "sume": 3978, "dust": 3979, "claim": 3980, "sert": 3981, "turning": 3982, "fection": 3983, "circle": 3984, "firmly": 3985, "greater": 3986, "concepts": 3987, "Professional": 3988, "ault": 3989, "hering": 3990, "maturity": 3991, "ums": 3992, "x9": 3993, "ann": 3994, "itate": 3995, "dio": 3996, "compe": 3997, "Examples": 3998, "Define": 3999, "supplies": 4000, "breaks": 4001, "scrip": 4002, "glue": 4003, "supporting": 4004, "jewelry": 4005, "favorite": 4006, "Car": 4007, "Emo": 4008, "ng": 4009, "vation": 4010, "win": 4011, "entering": 4012, "ulner": 4013, "wearing": 4014, "licts": 4015, "standards": 4016, "ification": 4017, "logical": 4018, "tters": 4019, "Respon": 4020, "Engaging": 4021, "pattern": 4022, "animals": 4023, "procedures": 4024, "convey": 4025, "seamless": 4026, "Cor": 4027, "UVD": 4028, "ffe": 4029, "meal": 4030, "lot": 4031, "unting": 4032, "iron": 4033, "feat": 4034, "anyone": 4035, "doors": 4036, "licit": 4037, "ishing": 4038, "feels": 4039, "consideration": 4040, "cultural": 4041, "stronger": 4042, "securely": 4043, "bonds": 4044, "shades": 4045, "shadow": 4046, "appeal": 4047, "acknowledging": 4048, "overwhelming": 4049, "R0d": 4050, "FRUVD": 4051, "fHx9": 4052, "atmosphere": 4053, "FRUVDR0d": 4054, "fHx9FRUVDR0d": 4055, "Wait": 4056, "bath": 4057, "matter": 4058, "walls": 4059, "tify": 4060, "encies": 4061, "atory": 4062, "accounts": 4063, "copy": 4064, "asm": 4065, "mption": 4066, "quer": 4067, "minimizing": 4068, "furniture": 4069, "powerful": 4070, "identity": 4071, "updated": 4072, "policies": 4073, "intelligence": 4074, "recovery": 4075, "meticulously": 4076, "obstacles": 4077, "Ab": 4078, "Whe": 4079, "Watch": 4080, "map": 4081, "pen": 4082, "tun": 4083, "tag": 4084, "threat": 4085, "ests": 4086, "ata": 4087, "dise": 4088, "neutral": 4089, "aller": 4090, "cream": 4091, "backs": 4092, "sens": 4093, "familiarize": 4094, "manageable": 4095, "classes": 4096, "sequences": 4097, "floor": 4098, "grooming": 4099, "mobile": 4100, "knife": 4101, "Ite": 4102, "Pati": 4103, "ights": 4104, "arrange": 4105, "rested": 4106, "maj": 4107, "que": 4108, "boards": 4109, "raise": 4110, "series": 4111, "price": 4112, "timate": 4113, "Prog": 4114, "produce": 4115, "responsibilities": 4116, "Setting": 4117, "appears": 4118, "customer": 4119, "sales": 4120, "switch": 4121, "entertain": 4122, "weaknesses": 4123, "implementing": 4124, "enthusiasm": 4125, "machine": 4126, "Turn": 4127, "Phy": 4128, "pite": 4129, "ouches": 4130, "coord": 4131, "motion": 4132, "amin": 4133, "ette": 4134, "spect": 4135, "profici": 4136, "openly": 4137, "purposes": 4138, "designs": 4139, "environments": 4140, "criteria": 4141, "staying": 4142, "advantage": 4143, "vehicle": 4144, "URL": 4145, "Ear": 4146, "Sof": 4147, "Treat": 4148, "hop": 4149, "sounds": 4150, "vent": 4151, "income": 4152, "lift": 4153, "isms": 4154, "colored": 4155, "ifts": 4156, "minded": 4157, "ava": 4158, "Online": 4159, "versati": 4160, "given": 4161, "Active": 4162, "aligns": 4163, "passion": 4164, "habit": 4165, "subject": 4166, "happiness": 4167, "candid": 4168, "aesthetic": 4169, "dialogue": 4170, "Gener": 4171, "Min": 4172, "niche": 4173, "third": 4174, "onom": 4175, "delicate": 4176, "context": 4177, "fear": 4178, "Ensure": 4179, "atches": 4180, "portions": 4181, "issue": 4182, "benefit": 4183, "duration": 4184, "investment": 4185, "Download": 4186, "suggestions": 4187, "investing": 4188, "18": 4189, "ids": 4190, "seal": 4191, "contr": 4192, "beauti": 4193, "vibr": 4194, "preci": 4195, "discip": 4196, "milestones": 4197, "beneficial": 4198, "Web": 4199, "wait": 4200, "collaboration": 4201, "normal": 4202, "judgment": 4203, "principles": 4204, "Name": 4205, "cast": 4206, "ited": 4207, "mates": 4208, "total": 4209, "concentr": 4210, "keting": 4211, "corners": 4212, "presents": 4213, "scene": 4214, "scrub": 4215, "attending": 4216, "attery": 4217, "--------------------------------------------": 4218, "Practic": 4219, "extended": 4220, "nearby": 4221, "model": 4222, "memories": 4223, "authenticity": 4224, "evaluate": 4225, "belief": 4226, "Moreover": 4227, "offered": 4228, "vinegar": 4229, "Hold": 4230, "done": 4231, "dest": 4232, "fan": 4233, "tin": 4234, "tones": 4235, "veter": 4236, "cop": 4237, "versity": 4238, "grat": 4239, "illu": 4240, "racing": 4241, "Demonstr": 4242, "selection": 4243, "memory": 4244, "educational": 4245, "mindfulness": 4246, "friendships": 4247, "Verify": 4248, "Organize": 4249, "channels": 4250, "credibility": 4251, "hadow": 4252, "cen": 4253, "eight": 4254, "vulner": 4255, "beauty": 4256, "examples": 4257, "standard": 4258, "structions": 4259, "carry": 4260, "multi": 4261, "Preparation": 4262, "cape": 4263, "meric": 4264, "beginning": 4265, "nutrition": 4266, "imagin": 4267, "Approach": 4268, "Ideally": 4269, "scenari": 4270, "covered": 4271, "Last": 4272, "Mix": 4273, "ares": 4274, "gaming": 4275, "pha": 4276, "ran": 4277, "utilize": 4278, "infl": 4279, "spread": 4280, "Things": 4281, "raft": 4282, "internet": 4283, "buy": 4284, "improvements": 4285, "boost": 4286, "----------------------------------": 4287, "protein": 4288, "advent": 4289, "affect": 4290, "prices": 4291, "System": 4292, "Tube": 4293, "All": 4294, "Next": 4295, "Par": 4296, "Pres": 4297, "aded": 4298, "bas": 4299, "fers": 4300, "narrow": 4301, "retain": 4302, "dex": 4303, "contract": 4304, "hear": 4305, "diff": 4306, "fees": 4307, "Rele": 4308, "clas": 4309, "ctu": 4310, "rence": 4311, "completion": 4312, "flavors": 4313, "conflicts": 4314, "attend": 4315, "alongside": 4316, "textures": 4317, "dried": 4318, "containers": 4319, "resulting": 4320, "cognitive": 4321, "identifying": 4322, "smoothly": 4323, "purchase": 4324, "volunte": 4325, "oulder": 4326, "major": 4327, "Att": 4328, "Brow": 4329, "Pat": 4330, "dre": 4331, "hidden": 4332, "reason": 4333, "conce": 4334, "Thor": 4335, "formal": 4336, "anges": 4337, "blend": 4338, "distur": 4339, "phones": 4340, "stores": 4341, "functional": 4342, "lighter": 4343, "operating": 4344, "transport": 4345, "damaging": 4346, "memorable": 4347, "gratulations": 4348, ",'": 4349, "Mu": 4350, "Mar": 4351, "SE": 4352, "bes": 4353, "eth": 4354, "fro": 4355, "mate": 4356, "radi": 4357, "tition": 4358, "title": 4359, "roles": 4360, "ults": 4361, "movi": 4362, "agr": 4363, "aven": 4364, "themselves": 4365, "Exer": 4366, "serving": 4367, "goes": 4368, "YouTube": 4369, "capture": 4370, "garments": 4371, "frequency": 4372, "username": 4373, "places": 4374, "introduce": 4375, "previously": 4376, "documentation": 4377, "written": 4378, "Hy": 4379, "SM": 4380, "fic": 4381, "ented": 4382, "tele": 4383, "sell": 4384, "Conf": 4385, "Initi": 4386, "themes": 4387, "engine": 4388, "facing": 4389, "responsibility": 4390, "property": 4391, "Sharing": 4392, "capable": 4393, "drag": 4394, "contributing": 4395, "exploration": 4396, "layout": 4397, "images": 4398, "Color": 4399, "private": 4400, "subjects": 4401, "Speak": 4402, "Jam": 4403, "ctivity": 4404, "ham": 4405, "robe": 4406, "rock": 4407, "dete": 4408, "chat": 4409, "ford": 4410, "spirit": 4411, "clutter": 4412, "regardless": 4413, "arian": 4414, "interven": 4415, "eled": 4416, "counsel": 4417, "Post": 4418, "testing": 4419, "traffic": 4420, "Mode": 4421, "audio": 4422, "persistent": 4423, "launch": 4424, "consumption": 4425, "thumb": 4426, "distribution": 4427, "deadlines": 4428, "requests": 4429, "temporary": 4430, "Patience": 4431, "Thorough": 4432, "60": 4433, "Can": 4434, "Pe": 4435, "hin": 4436, "ned": 4437, "sors": 4438, "sketch": 4439, "refer": 4440, "era": 4441, "meat": 4442, "older": 4443, "cling": 4444, "domin": 4445, "month": 4446, "interested": 4447, "complement": 4448, "turns": 4449, "mention": 4450, "fabrics": 4451, "agreement": 4452, "preserve": 4453, "Measure": 4454, "gauge": 4455, "TV": 4456, "cups": 4457, "session": 4458, "yellow": 4459, "aint": 4460, "soon": 4461, "Express": 4462, "breaking": 4463, "topic": 4464, "portion": 4465, "filter": 4466, "100": 4467, "mixture": 4468, "photograph": 4469, "bacteria": 4470, "yield": 4471, "Appropriate": 4472, "Physical": 4473, "Americ": 4474, "II": 4475, "Many": 4476, "PC": 4477, "Style": 4478, "ore": 4479, "stant": 4480, "activ": 4481, "adhering": 4482, "exci": 4483, "anger": 4484, "region": 4485, "arise": 4486, "helps": 4487, "looks": 4488, "Applying": 4489, "mise": 4490, "availability": 4491, "strategic": 4492, "structures": 4493, "orders": 4494, "shopping": 4495, "deliver": 4496, "weekly": 4497, "iPod": 4498, "hydration": 4499, "toothbrush": 4500, "Continu": 4501, "twice": 4502, "eggs": 4503, "electronic": 4504, "24": 4505, "Light": 4506, "Learning": 4507, "dic": 4508, "far": 4509, "faster": 4510, "gard": 4511, "mac": 4512, "intake": 4513, "alone": 4514, "argu": 4515, "stable": 4516, "acity": 4517, "entry": 4518, "mel": 4519, "rib": 4520, "Becoming": 4521, "Change": 4522, "expenses": 4523, "lessons": 4524, "funda": 4525, "ports": 4526, "filters": 4527, "passions": 4528, "placed": 4529, "inspiration": 4530, "Communicate": 4531, "credentials": 4532, "expression": 4533, "swimming": 4534, ")**": 4535, "Home": 4536, "Rinse": 4537, "fair": 4538, "rare": 4539, "vere": 4540, "conclusion": 4541, "agues": 4542, "evol": 4543, "============": 4544, "observe": 4545, "whereas": 4546, "tests": 4547, "distress": 4548, "courses": 4549, "pier": 4550, "importance": 4551, "Obtain": 4552, "internal": 4553, "utilizing": 4554, "aggressive": 4555, "Discuss": 4556, "Items": 4557, "Vis": 4558, "ban": 4559, "zen": 4560, "deter": 4561, "belong": 4562, "versions": 4563, "ilar": 4564, "quanti": 4565, "Streng": 4566, "experiment": 4567, "Options": 4568, "covering": 4569, "showing": 4570, "placement": 4571, "fitness": 4572, "networks": 4573, "models": 4574, "Communication": 4575, "monitoring": 4576, "virtual": 4577, "Launch": 4578, "Further": 4579, "Thoroughly": 4580, "Boo": 4581, "Scre": 4582, "born": 4583, "sted": 4584, "stro": 4585, "dered": 4586, "shoulder": 4587, "Requi": 4588, "command": 4589, "fields": 4590, "shoulders": 4591, "personalized": 4592, "effect": 4593, "opening": 4594, "functions": 4595, "collection": 4596, "insight": 4597, "Cleaning": 4598, "moisturi": 4599, "photos": 4600, "amounts": 4601, "integrity": 4602, "facilitate": 4603, "puppy": 4604, "Control": 4605, "Character": 4606, "Microsoft": 4607, "/>": 4608, "25": 4609, "City": 4610, "SS": 4611, "Tra": 4612, "bank": 4613, "gate": 4614, "mass": 4615, "acid": 4616, "lives": 4617, "istics": 4618, "chin": 4619, "consul": 4620, "apport": 4621, "Congratulations": 4622, "rust": 4623, "serves": 4624, "involving": 4625, "driver": 4626, "mild": 4627, "protective": 4628, "circles": 4629, "Peri": 4630, "feeding": 4631, "salt": 4632, "immediate": 4633, "indicating": 4634, "influence": 4635, "knees": 4636, "resistance": 4637, "visiting": 4638, "beautiful": 4639, "Bring": 4640, "fold": 4641, "ived": 4642, "rep": 4643, "techn": 4644, "stones": 4645, "deb": 4646, "prolong": 4647, "resolution": 4648, "oppon": 4649, "aches": 4650, "preparing": 4651, "Instructions": 4652, "doll": 4653, "growing": 4654, "harmon": 4655, "walking": 4656, "meets": 4657, "achievable": 4658, "obtaining": 4659, "cooked": 4660, "Interest": 4661, "triggers": 4662, "schedules": 4663, "Fl": 4664, "Her": 4665, "baking": 4666, "eath": 4667, "lack": 4668, "pric": 4669, "sci": 4670, "tang": 4671, "windows": 4672, "intim": 4673, "ancy": 4674, "root": 4675, "itself": 4676, "coping": 4677, "mentors": 4678, "poor": 4679, "liner": 4680, "ambi": 4681, "corresponding": 4682, "anything": 4683, "variety": 4684, "productivity": 4685, "lists": 4686, "crush": 4687, "wheel": 4688, "beneath": 4689, "physic": 4690, "wrap": 4691, "reduced": 4692, "oils": 4693, "negatively": 4694, "matches": 4695, "bowl": 4696, "automatically": 4697, "rapid": 4698, "accessible": 4699, "Period": 4700, "13": 4701, "Ele": 4702, "Equi": 4703, "Other": 4704, "fly": 4705, "vit": 4706, "wit": 4707, "resol": 4708, "verage": 4709, "exclu": 4710, "exact": 4711, "pret": 4712, "Their": 4713, "Positive": 4714, "causes": 4715, "actionable": 4716, "encouraging": 4717, "brown": 4718, "Like": 4719, "record": 4720, "casual": 4721, "scenarios": 4722, "Tim": 4723, "gaps": 4724, "tac": 4725, "ush": 4726, "eral": 4727, "ache": 4728, "yours": 4729, "wild": 4730, "consequences": 4731, "editing": 4732, "herence": 4733, "nel": 4734, "spend": 4735, "ears": 4736, "positivity": 4737, "steady": 4738, "mising": 4739, "Andro": 4740, "proteins": 4741, "buildup": 4742, "clips": 4743, "environmental": 4744, "figure": 4745, "Purch": 4746, "accomplishments": 4747, "attractive": 4748, "precision": 4749, "Initiate": 4750, "</": 4751, "Cele": 4752, "DS": 4753, "LE": 4754, "Paper": 4755, "calls": 4756, "rapport": 4757, "ud": 4758, "tified": 4759, "orize": 4760, "sizing": 4761, "severe": 4762, "enty": 4763, "ises": 4764, "heavi": 4765, "olar": 4766, "links": 4767, "creation": 4768, "romantic": 4769, "grade": 4770, "elev": 4771, "improves": 4772, "talk": 4773, "keywords": 4774, "discussion": 4775, "juries": 4776, "Grou": 4777, "combat": 4778, "Not": 4779, "ifying": 4780, "graphy": 4781, "residue": 4782, "Properly": 4783, "touching": 4784, "------------------------------": 4785, "appealing": 4786, "Quality": 4787, "morning": 4788, "wikiHow": 4789, "write": 4790, "birth": 4791, "technology": 4792, "Collaborate": 4793, "phrases": 4794, "Android": 4795, "AR": 4796, "Brush": 4797, "drin": 4798, "ker": 4799, "sche": 4800, "injuries": 4801, "titu": 4802, "delay": 4803, "codes": 4804, "ressed": 4805, "soli": 4806, "peace": 4807, "experiencing": 4808, "manually": 4809, "supple": 4810, "effectiveness": 4811, "marketing": 4812, "properties": 4813, "showcase": 4814, "Selecting": 4815, "cycle": 4816, "demonstrating": 4817, "navigation": 4818, "think": 4819, "advance": 4820, "eyeshadow": 4821, "construction": 4822, "labeled": 4823, "harmful": 4824, "truly": 4825, "saying": 4826, "Similar": 4827, "Network": 4828, "aspirations": 4829, "Differen": 4830, "vibrant": 4831, "excite": 4832, ".**": 4833, "Har": 4834, "Top": 4835, "gue": 4836, "rome": 4837, "vet": 4838, "wet": 4839, "duc": 4840, "Request": 4841, "minute": 4842, "aching": 4843, "dom": 4844, "hite": 4845, "processing": 4846, "smart": 4847, "attacks": 4848, "wardrobe": 4849, "Application": 4850, "rinse": 4851, "enjoyment": 4852, "specialized": 4853, "panel": 4854, "preferably": 4855, "================================================": 4856, "teaching": 4857, "finished": 4858, "roots": 4859, "rooms": 4860, "middle": 4861, "companion": 4862, "restrictions": 4863, "Progress": 4864, "Celebr": 4865, "?\"": 4866, "Lin": 4867, "Log": 4868, "Pass": 4869, "Stick": 4870, "Ul": 4871, "gover": 4872, "mature": 4873, "pep": 4874, "sme": 4875, "intr": 4876, "leep": 4877, "sustain": 4878, "constant": 4879, "oles": 4880, "liness": 4881, "permission": 4882, "haz": 4883, "providers": 4884, "office": 4885, "interface": 4886, "psy": 4887, "buying": 4888, "onesty": 4889, "mindset": 4890, "letter": 4891, "extend": 4892, "beginners": 4893, "reflection": 4894, "treatments": 4895, "stream": 4896, "fruit": 4897, "afford": 4898, "Balance": 4899, "configur": 4900, "criticism": 4901, "Free": 4902, "Nu": 4903, "Table": 4904, "sor": 4905, "tees": 4906, "attract": 4907, "suing": 4908, "tention": 4909, "underlying": 4910, "Adding": 4911, "Allocate": 4912, "Enh": 4913, "news": 4914, "understandings": 4915, "scar": 4916, "Display": 4917, "course": 4918, "colleagues": 4919, "crafting": 4920, "waiting": 4921, "Strong": 4922, "consuming": 4923, "sunlight": 4924, "Effective": 4925, "gestures": 4926, "Da": 4927, "Mind": 4928, "Slow": 4929, "Tap": 4930, "aign": 4931, "blocks": 4932, "pin": 4933, "rhy": 4934, "wing": 4935, "repeat": 4936, "alk": 4937, "road": 4938, "meter": 4939, "wire": 4940, "apers": 4941, "vertical": 4942, "modify": 4943, "disrup": 4944, "spection": 4945, "hiding": 4946, "Adv": 4947, "Tools": 4948, "differences": 4949, "comfortably": 4950, "emotionally": 4951, "minimizes": 4952, "cells": 4953, "sheet": 4954, "cros": 4955, "glasses": 4956, "varying": 4957, "celebrate": 4958, "centered": 4959, "Furthermore": 4960, "Both": 4961, "Cap": 4962, "Rest": 4963, "battery": 4964, "fication": 4965, "lashes": 4966, "ology": 4967, "inf": 4968, "repair": 4969, "dec": 4970, "ising": 4971, "assemb": 4972, "adhesive": 4973, "unsure": 4974, "plate": 4975, "soda": 4976, "oods": 4977, "spending": 4978, "comments": 4979, "Remain": 4980, "grad": 4981, "Information": 4982, "overly": 4983, "skil": 4984, "otherwise": 4985, "gged": 4986, "blending": 4987, "searching": 4988, "object": 4989, "securing": 4990, "entirely": 4991, "reputation": 4992, "periodically": 4993, "Black": 4994, "laws": 4995, "pull": 4996, "Details": 4997, "pricing": 4998, "But": 4999, "Give": 5000, "Pan": 5001, "Touch": 5002, "insurance": 5003, "refin": 5004, "oral": 5005, "degree": 5006, "chance": 5007, "coll": 5008, "metr": 5009, "ull": 5010, "modif": 5011, "quo": 5012, "precise": 5013, "despite": 5014, "Deep": 5015, "highlight": 5016, "drain": 5017, "holes": 5018, "Divide": 5019, "attempts": 5020, "embrace": 5021, "household": 5022, "distribute": 5023, "polished": 5024, "receiving": 5025, "Combine": 5026, "eliminate": 5027, "excitement": 5028, "Java": 5029, "Pi": 5030, "Red": 5031, "athe": 5032, "cater": 5033, "gift": 5034, "ontal": 5035, "tox": 5036, "letters": 5037, "shamp": 5038, "tray": 5039, "spin": 5040, "fulness": 5041, "manip": 5042, "ject": 5043, "misunderstandings": 5044, "particles": 5045, "visually": 5046, "dogs": 5047, "Desired": 5048, "Feel": 5049, "expert": 5050, "reinforces": 5051, "picture": 5052, "silver": 5053, "Consistency": 5054, "procedure": 5055, "absorb": 5056, "reveal": 5057, "Study": 5058, "appointments": 5059, "shampoo": 5060, "Data": 5061, "Pop": 5062, "Power": 5063, "Word": 5064, "fats": 5065, "uum": 5066, "yes": 5067, "ali": 5068, "deal": 5069, "chop": 5070, "asser": 5071, "Steps": 5072, "outdoor": 5073, "duct": 5074, "immer": 5075, "taken": 5076, "Provi": 5077, "Process": 5078, "cleaner": 5079, "nuts": 5080, "Move": 5081, "objective": 5082, "circular": 5083, "combinations": 5084, "painting": 5085, "displayed": 5086, "Clearly": 5087, "teeth": 5088, "advantages": 5089, "diagno": 5090, "modern": 5091, "dynamic": 5092, "Whether": 5093, "45": 5094, "Ben": 5095, "Educ": 5096, "Lever": 5097, "pages": 5098, "tables": 5099, "usion": 5100, "vin": 5101, "oubles": 5102, "leather": 5103, "libr": 5104, "chick": 5105, "ulk": 5106, "versi": 5107, "irable": 5108, "ples": 5109, "elbow": 5110, "grace": 5111, "grass": 5112, "dishes": 5113, "brain": 5114, "gives": 5115, "styling": 5116, "Shop": 5117, "pursuing": 5118, "progressive": 5119, "adjusting": 5120, "clip": 5121, "Training": 5122, "micals": 5123, "default": 5124, "difficulty": 5125, "Calcul": 5126, "expressions": 5127, "trees": 5128, "horizont": 5129, "Small": 5130, "compromise": 5131, "screws": 5132, "About": 5133, "American": 5134, "horizontally": 5135, "40": 5136, "Long": 5137, "ML": 5138, "cX": 5139, "kit": 5140, "lap": 5141, "mands": 5142, "vations": 5143, "thread": 5144, "attire": 5145, "susp": 5146, "were": 5147, "grades": 5148, "domain": 5149, "called": 5150, "butter": 5151, "backup": 5152, "daunting": 5153, "invent": 5154, "symb": 5155, "omen": 5156, "contains": 5157, "deeply": 5158, "customers": 5159, "positioning": 5160, "transitions": 5161, "brist": 5162, "genuinely": 5163, "sibly": 5164, "sized": 5165, "square": 5166, "aith": 5167, "limitations": 5168, "Healthy": 5169, "beliefs": 5170, "copies": 5171, "physically": 5172, "Fx": 5173, "Fun": 5174, "Pub": 5175, "Photo": 5176, "Ve": 5177, "atives": 5178, "rit": 5179, "represents": 5180, "arr": 5181, "coins": 5182, "iring": 5183, "fox": 5184, "Chrome": 5185, "beforehand": 5186, "Additional": 5187, "gibility": 5188, "Makeup": 5189, "student": 5190, "brushes": 5191, "fitting": 5192, "Contact": 5193, "Following": 5194, "journal": 5195, "000": 5196, "tracking": 5197, "humor": 5198, "operation": 5199, "compatible": 5200, "Improve": 5201, "camera": 5202, "allevi": 5203, "Friend": 5204, "featuring": 5205, "fHx9FRUVDR0dfHx9FRUVDR0d": 5206, "transportation": 5207, "consulting": 5208, "Different": 5209, "cXFx": 5210, "=\"": 5211, "ech": 5212, "rating": 5213, "scan": 5214, "tons": 5215, "vas": 5216, "intro": 5217, "instruct": 5218, "remind": 5219, "reaction": 5220, "sex": 5221, "rist": 5222, "exhi": 5223, "Real": 5224, "grains": 5225, "cord": 5226, "umes": 5227, "artwork": 5228, "flui": 5229, "flag": 5230, "ished": 5231, "charge": 5232, "confusion": 5233, "faced": 5234, "caution": 5235, "networking": 5236, "intense": 5237, "enhanced": 5238, "learned": 5239, "lifting": 5240, "labels": 5241, "encounters": 5242, "removal": 5243, "maged": 5244, "Record": 5245, "respective": 5246, "technical": 5247, "Fact": 5248, "Mess": 5249, "cable": 5250, "ji": 5251, "tall": 5252, "throw": 5253, "attitude": 5254, "demand": 5255, "extrac": 5256, "upcoming": 5257, "cture": 5258, "ships": 5259, "explicit": 5260, "heads": 5261, "controls": 5262, "generate": 5263, "chemicals": 5264, "navigating": 5265, "Spend": 5266, "assessment": 5267, "usual": 5268, "Getting": 5269, "wisely": 5270, "emergency": 5271, "assignments": 5272, "distinct": 5273, "accommodate": 5274, "Correct": 5275, "Confid": 5276, "Leverage": 5277, "Matters": 5278, "Smo": 5279, "bers": 5280, "vict": 5281, "ints": 5282, "orter": 5283, "sters": 5284, "aser": 5285, "assu": 5286, "met": 5287, "upwards": 5288, "overnight": 5289, "desk": 5290, "curls": 5291, "joining": 5292, "keeps": 5293, "started": 5294, "encouragement": 5295, "Establishing": 5296, "relaxed": 5297, "introducing": 5298, "dressing": 5299, "stains": 5300, "clarity": 5301, "determination": 5302, "artists": 5303, "dropdown": 5304, "Safety": 5305, "campaign": 5306, "versatile": 5307, "discipline": 5308, "Music": 5309, "hinder": 5310, "rhyth": 5311, "Dri": 5312, "Sum": 5313, "Ter": 5314, "Vide": 5315, "cou": 5316, "ires": 5317, "tree": 5318, "infection": 5319, "tile": 5320, "lict": 5321, "lost": 5322, "heating": 5323, "crete": 5324, "imic": 5325, "rench": 5326, "serious": 5327, "interact": 5328, "setbacks": 5329, "healthier": 5330, "atching": 5331, "trade": 5332, "fections": 5333, "respectfully": 5334, "loading": 5335, "cycling": 5336, "Content": 5337, "balls": 5338, "hardware": 5339, "Sky": 5340, "religi": 5341, "waist": 5342, "landsc": 5343, "flexible": 5344, "durability": 5345, "execution": 5346, "executing": 5347, "Consistent": 5348, "uniform": 5349, "Knowing": 5350, "Practicing": 5351, "Lastly": 5352, "Exercise": 5353, "Visual": 5354, "Periodically": 5355, "Celebrate": 5356, "intricate": 5357, "19": 5358, "Ach": 5359, "Fit": 5360, "Rout": 5361, "bone": 5362, "blog": 5363, "cin": 5364, "casing": 5365, "ee": 5366, "flight": 5367, "gers": 5368, "moun": 5369, "overs": 5370, "vals": 5371, "zed": 5372, "tit": 5373, "ende": 5374, "tops": 5375, "stages": 5376, "aters": 5377, "wipe": 5378, "adherence": 5379, "shine": 5380, "ipe": 5381, "ounce": 5382, "complications": 5383, "rati": 5384, "Explain": 5385, "setup": 5386, "Only": 5387, "breed": 5388, "Poli": 5389, "ideally": 5390, "court": 5391, "berries": 5392, "customize": 5393, "Arrange": 5394, "nutrients": 5395, "Accessories": 5396, "delivery": 5397, "continued": 5398, "agreements": 5399, "label": 5400, "measurements": 5401, "catching": 5402, "targets": 5403, "Customize": 5404, "Specific": 5405, "Relationship": 5406, "entertainment": 5407, "contrast": 5408, "mentioned": 5409, "AA": 5410, "CD": 5411, "Cover": 5412, "Non": 5413, "Ste": 5414, "She": 5415, "Teach": 5416, "city": 5417, "ience": 5418, "thers": 5419, "alter": 5420, "thetics": 5421, "rolling": 5422, "cher": 5423, "formed": 5424, "uler": 5425, "uncomfortable": 5426, "viol": 5427, "ural": 5428, "mentally": 5429, "motions": 5430, "perman": 5431, "outfits": 5432, "oot": 5433, "commands": 5434, "Program": 5435, "friger": 5436, "highlights": 5437, "posal": 5438, "interesting": 5439, "stume": 5440, "bench": 5441, "characteristics": 5442, "optimize": 5443, "measuring": 5444, "specializing": 5445, "bedtime": 5446, "embracing": 5447, "teachers": 5448, "evaluating": 5449, "indicates": 5450, "category": 5451, "analysis": 5452, "defined": 5453, "horizontal": 5454, "targeted": 5455, "proficiency": 5456, "photographs": 5457, "fundamental": 5458, "![": 5459, "Base": 5460, "Drag": 5461, "Sal": 5462, "bun": 5463, "bands": 5464, "happy": 5465, "mirr": 5466, "pads": 5467, "san": 5468, "send": 5469, "recent": 5470, "mps": 5471, "tically": 5472, "upward": 5473, "apped": 5474, "minor": 5475, "boy": 5476, "notif": 5477, "contents": 5478, "contacts": 5479, "Exam": 5480, "Although": 5481, "damaged": 5482, "explo": 5483, "Head": 5484, "decide": 5485, "intentions": 5486, "datab": 5487, "aligned": 5488, "articles": 5489, "reflects": 5490, "frequent": 5491, "attempt": 5492, "participants": 5493, "summar": 5494, "Local": 5495, "answer": 5496, "formula": 5497, "Firefox": 5498, "weapons": 5499, "classic": 5500, "Purchase": 5501, "psycho": 5502, "16": 5503, "Cop": 5504, "Coun": 5505, "Every": 5506, "Ph": 5507, "fre": 5508, "ged": 5509, "maps": 5510, "pac": 5511, "vents": 5512, "zers": 5513, "reme": 5514, "rejec": 5515, "theme": 5516, "coffe": 5517, "adhere": 5518, "neath": 5519, "server": 5520, "buttons": 5521, "interacting": 5522, "factor": 5523, "enjoying": 5524, "keys": 5525, "keyboard": 5526, "popularity": 5527, "bars": 5528, "softly": 5529, "paying": 5530, "thoughtfully": 5531, "Features": 5532, "shots": 5533, "gathering": 5534, "sweet": 5535, "confirmation": 5536, "zzle": 5537, "worthy": 5538, "straints": 5539, "Estim": 5540, "Gen": 5541, "Tail": 5542, "XP": 5543, "atic": 5544, "eat": 5545, "gun": 5546, "mary": 5547, "mical": 5548, "index": 5549, "tiles": 5550, "loop": 5551, "prospec": 5552, "constraints": 5553, "resource": 5554, "output": 5555, "plenty": 5556, "amm": 5557, "ctor": 5558, "engaged": 5559, "interpersonal": 5560, "interpret": 5561, "workout": 5562, "posite": 5563, "lightweight": 5564, "genres": 5565, "joint": 5566, "difference": 5567, "minimum": 5568, "extending": 5569, "approaches": 5570, "teams": 5571, "meetings": 5572, "sequent": 5573, "pleas": 5574, "recognize": 5575, "determining": 5576, "accidental": 5577, "appointment": 5578, "songs": 5579, "guarantees": 5580, "shirt": 5581, "Emotional": 5582, "shadows": 5583, "opponents": 5584, "alleviate": 5585, "(\"": 5586, "Dark": 5587, "Fil": 5588, "Ho": 5589, "sau": 5590, "tack": 5591, "zation": 5592, "relying": 5593, "anch": 5594, "stone": 5595, "terior": 5596, "perce": 5597, "Reach": 5598, "fulfilling": 5599, "grounds": 5600, "bottle": 5601, "worry": 5602, "desirable": 5603, "question": 5604, "physi": 5605, "presentation": 5606, "circul": 5607, "drops": 5608, "strip": 5609, "strive": 5610, "prompted": 5611, "male": 5612, "delicious": 5613, "grip": 5614, "jeans": 5615, "orney": 5616, "litter": 5617, "compromising": 5618, "dimensions": 5619, "modifications": 5620, "coffee": 5621, "Cook": 5622, "Scro": 5623, "faith": 5624, "hat": 5625, "nur": 5626, "recording": 5627, "young": 5628, "attrac": 5629, "rop": 5630, "define": 5631, "selling": 5632, "ceed": 5633, "aph": 5634, "trick": 5635, "discre": 5636, "pression": 5637, "eleg": 5638, "host": 5639, "Form": 5640, "certified": 5641, "scis": 5642, "Poten": 5643, "Optim": 5644, "ock": 5645, "idea": 5646, "veness": 5647, "transform": 5648, "establishing": 5649, "stored": 5650, "guides": 5651, "removed": 5652, "hesitate": 5653, "nutrient": 5654, "excessively": 5655, "publish": 5656, "Outcome": 5657, "print": 5658, "studying": 5659, "downloading": 5660, "competitive": 5661, "Recognizing": 5662, "Media": 5663, "applied": 5664, "dimension": 5665, "macOS": 5666, "Ado": 5667, "BT": 5668, "Dog": 5669, "Gre": 5670, "bor": 5671, "hu": 5672, "hun": 5673, "pa": 5674, "paid": 5675, "ux": 5676, "ention": 5677, "stun": 5678, "develo": 5679, "seed": 5680, "losing": 5681, "mathe": 5682, "percent": 5683, "opposite": 5684, "strands": 5685, "cessed": 5686, "licy": 5687, "impacts": 5688, "cleaned": 5689, "ubborn": 5690, "cara": 5691, "carri": 5692, "Activities": 5693, "Acknowledge": 5694, "therefore": 5695, "venue": 5696, "client": 5697, "Finding": 5698, "Priv": 5699, "luck": 5700, "consume": 5701, "Life": 5702, "Highlight": 5703, "Therefore": 5704, "aesthetics": 5705, "submitting": 5706, "tissue": 5707, "Soft": 5708, "Demonstrate": 5709, "exclusive": 5710, "Adobe": 5711, "Bi": 5712, "School": 5713, "dancing": 5714, "mimic": 5715, "sent": 5716, "wind": 5717, "inarian": 5718, "sus": 5719, "suff": 5720, "concrete": 5721, "adm": 5722, "admini": 5723, "gets": 5724, "**.": 5725, "----------": 5726, "pota": 5727, "comprehen": 5728, "rai": 5729, "considered": 5730, "ister": 5731, "subsequent": 5732, "Actively": 5733, "deciding": 5734, "Compare": 5735, "guests": 5736, "climate": 5737, "collect": 5738, "easily": 5739, "treats": 5740, "affected": 5741, "initiate": 5742, "therapist": 5743, "landing": 5744, "competition": 5745, "preserving": 5746, "observing": 5747, "checks": 5748, "jumping": 5749, "dietary": 5750, "resonate": 5751, "independence": 5752, "concentration": 5753, "phase": 5754, "Attach": 5755, "tactics": 5756, "delays": 5757, "inventory": 5758, "Scroll": 5759, "scissors": 5760, "\">": 5761, "14": 5762, "Dele": 5763, "IM": 5764, "Mag": 5765, "Sha": 5766, "Size": 5767, "Scrip": 5768, "Two": 5769, "fans": 5770, "sin": 5771, "refriger": 5772, "ensi": 5773, "arri": 5774, "demands": 5775, "celer": 5776, "abuse": 5777, "rid": 5778, "urable": 5779, "shorter": 5780, "weigh": 5781, "cive": 5782, "desire": 5783, "peak": 5784, "presented": 5785, "Environ": 5786, "workouts": 5787, "hole": 5788, "Promo": 5789, "brands": 5790, "communic": 5791, "Introduce": 5792, "speech": 5793, "releases": 5794, "institu": 5795, "gery": 5796, "ricular": 5797, "extensions": 5798, "audiences": 5799, "breaths": 5800, "installing": 5801, "affecting": 5802, "tificial": 5803, "Suitable": 5804, "rubber": 5805, "Collect": 5806, "believe": 5807, "Integr": 5808, "acknowledge": 5809, "answers": 5810, "Important": 5811, "disease": 5812, "hazards": 5813, "Video": 5814, "80": 5815, "Bound": 5816, "Eye": 5817, "Grow": 5818, "Put": 5819, "Sit": 5820, "bol": 5821, "bird": 5822, "hues": 5823, "jar": 5824, "ney": 5825, "pins": 5826, "org": 5827, "sight": 5828, "decrease": 5829, "chron": 5830, "loaded": 5831, "dual": 5832, "gran": 5833, "gray": 5834, "descri": 5835, "owner": 5836, "ownership": 5837, "atigue": 5838, "State": 5839, "country": 5840, "sensi": 5841, "Points": 5842, "leadership": 5843, "attorney": 5844, "capacity": 5845, "Moist": 5846, "strategically": 5847, "browsing": 5848, "Foster": 5849, "corporate": 5850, "aiming": 5851, "prompts": 5852, "identification": 5853, "electrical": 5854, "package": 5855, "-----------------------------": 5856, "treating": 5857, "Basics": 5858, "knee": 5859, "Edit": 5860, "conducive": 5861, "frozen": 5862, "movies": 5863, "monthly": 5864, "Screen": 5865, "Equipment": 5866, "Food": 5867, "Games": 5868, "HT": 5869, "Hal": 5870, "Pas": 5871, "Pack": 5872, "User": 5873, "Utili": 5874, "bust": 5875, "bold": 5876, "flies": 5877, "ml": 5878, "ption": 5879, "saving": 5880, "tches": 5881, "wrink": 5882, "inate": 5883, "oute": 5884, "tocol": 5885, "adver": 5886, "ula": 5887, "gel": 5888, "uneven": 5889, "diges": 5890, "urricular": 5891, "exfoli": 5892, "excel": 5893, "policy": 5894, "spring": 5895, "split": 5896, "Return": 5897, "hide": 5898, "holi": 5899, "ishes": 5900, "attentively": 5901, "organizing": 5902, "talking": 5903, "foundational": 5904, "practical": 5905, "addresses": 5906, "big": 5907, "bio": 5908, "commitments": 5909, "sheets": 5910, "affection": 5911, "Super": 5912, "teacher": 5913, "Experience": 5914, "suggest": 5915, "Typ": 5916, "recognizing": 5917, "honestly": 5918, "mechanisms": 5919, "dynamics": 5920, "occasionally": 5921, "battle": 5922, "tags": 5923, "candidates": 5924, "basket": 5925, "Linux": 5926, "Daily": 5927, "Advanced": 5928, "chicken": 5929, "AP": 5930, "Cer": 5931, "Day": 5932, "ER": 5933, "Fresh": 5934, "Line": 5935, "MI": 5936, "Sleep": 5937, "Us": 5938, "aqu": 5939, "atively": 5940, "brac": 5941, "dru": 5942, "lun": 5943, "yard": 5944, "refers": 5945, "ender": 5946, "ites": 5947, "processed": 5948, "adopting": 5949, "dip": 5950, "discour": 5951, "Chall": 5952, "Christ": 5953, "workspace": 5954, "mane": 5955, "maintains": 5956, "bub": 5957, "variations": 5958, "highly": 5959, "highlighting": 5960, "possibilities": 5961, "pursuits": 5962, "knowing": 5963, "organic": 5964, "organize": 5965, "parent": 5966, "emails": 5967, "lengths": 5968, "Success": 5969, "calmly": 5970, "pencils": 5971, "](#": 5972, "scale": 5973, "adaptability": 5974, "resonates": 5975, "briefly": 5976, "Group": 5977, "Ultimately": 5978, "circulation": 5979, "Potential": 5980, "mathema": 5981, "Bet": 5982, "Drive": 5983, "Just": 5984, "Lu": 5985, "Mis": 5986, "Sw": 5987, "Tun": 5988, "Taking": 5989, "Trust": 5990, "average": 5991, "cage": 5992, "gall": 5993, "lf": 5994, "patch": 5995, "rings": 5996, "snow": 5997, "voc": 5998, "thri": 5999, "tie": 6000, "arts": 6001, "lity": 6002, "listed": 6003, "chip": 6004, "covers": 6005, "forums": 6006, "lots": 6007, "unfamiliar": 6008, "heated": 6009, "modes": 6010, "irm": 6011, "outline": 6012, "sport": 6013, "sponge": 6014, "avings": 6015, "formats": 6016, "pregn": 6017, "licen": 6018, "rows": 6019, "Adopt": 6020, "signals": 6021, "cloths": 6022, "profiles": 6023, "talents": 6024, "severance": 6025, "smoother": 6026, "strips": 6027, "warmth": 6028, "committing": 6029, "participation": 6030, "mixing": 6031, "bridge": 6032, "frustration": 6033, "============================================": 6034, "inspire": 6035, "rubbing": 6036, "hydrated": 6037, "analyze": 6038, "calculate": 6039, "occurs": 6040, "primarily": 6041, "convenient": 6042, "transparen": 6043, "interrupting": 6044, "Close": 6045, "interviews": 6046, "People": 6047, "ART": 6048, "pepper": 6049, "Slowly": 6050, "Boundaries": 6051, "Based": 6052, "DVD": 6053, "PD": 6054, "QL": 6055, "Sketch": 6056, "SQL": 6057, "White": 6058, "aur": 6059, "blogs": 6060, "gal": 6061, "gifts": 6062, "kno": 6063, "pink": 6064, "stop": 6065, "ump": 6066, "orting": 6067, "alty": 6068, "altern": 6069, "andom": 6070, "tow": 6071, "stubborn": 6072, "costume": 6073, "forth": 6074, "concept": 6075, "ipating": 6076, "perseverance": 6077, "neat": 6078, "Replace": 6079, "fulfill": 6080, "ortun": 6081, "Cool": 6082, "histor": 6083, "oblig": 6084, "interfe": 6085, "backward": 6086, "impression": 6087, "homes": 6088, "saved": 6089, "flash": 6090, "needing": 6091, "expensive": 6092, "airs": 6093, "conflict": 6094, "missing": 6095, "empty": 6096, "centers": 6097, "brushing": 6098, "wrong": 6099, "Developing": 6100, "rounded": 6101, "representing": 6102, "intellect": 6103, "summer": 6104, "Area": 6105, "irritation": 6106, "---------------------------": 6107, "urturing": 6108, "description": 6109, "shirts": 6110, "Benef": 6111, "oubleshoo": 6112, "fluid": 6113, "CT": 6114, "Che": 6115, "Mul": 6116, "NT": 6117, "bones": 6118, "ctively": 6119, "haven": 6120, "honesty": 6121, "ions": 6122, "kick": 6123, "lat": 6124, "pil": 6125, "saves": 6126, "touches": 6127, "thes": 6128, "tear": 6129, "arking": 6130, "artificial": 6131, "decre": 6132, "uling": 6133, "essarily": 6134, "shy": 6135, "mbs": 6136, "Ther": 6137, "paralle": 6138, "commonly": 6139, "necessarily": 6140, "Code": 6141, "underneath": 6142, "locking": 6143, "saw": 6144, "sending": 6145, "tailor": 6146, "Preparing": 6147, "intendo": 6148, "statement": 6149, "craf": 6150, "complexity": 6151, "slide": 6152, "defensive": 6153, "Feed": 6154, "View": 6155, "directions": 6156, "-------------------------------": 6157, "observations": 6158, "artistic": 6159, "formatting": 6160, "interruptions": 6161, "emphasizing": 6162, "onomy": 6163, "Relevant": 6164, "SMART": 6165, "comprehension": 6166, "CO": 6167, "CP": 6168, "Lip": 6169, "Nintendo": 6170, "Since": 6171, "Solution": 6172, "Tutor": 6173, "Win": 6174, "cash": 6175, "cket": 6176, "casts": 6177, "fatigue": 6178, "pitch": 6179, "report": 6180, "onese": 6181, "anime": 6182, "tian": 6183, "staff": 6184, "entation": 6185, "logged": 6186, "conversion": 6187, "exterior": 6188, "kewarm": 6189, "spine": 6190, "quette": 6191, "angers": 6192, "skir": 6193, "curl": 6194, "interior": 6195, "gender": 6196, "blaming": 6197, "differently": 6198, "Within": 6199, "texts": 6200, "builds": 6201, "detailing": 6202, "runes": 6203, "deepen": 6204, "crabs": 6205, "displays": 6206, "matching": 6207, "figures": 6208, "initiating": 6209, "Accessorize": 6210, "gatherings": 6211, "inspired": 6212, "icious": 6213, "tightly": 6214, "validate": 6215, "received": 6216, "trigger": 6217, "temporarily": 6218, "guarantee": 6219, "Continuously": 6220, "prolonged": 6221, "pleasant": 6222, "Typically": 6223, "oneself": 6224, "33": 6225, "75": 6226, "Book": 6227, "Cir": 6228, "Language": 6229, "Ques": 6230, "bin": 6231, "hous": 6232, "oven": 6233, "olog": 6234, "women": 6235, "insert": 6236, "inspect": 6237, "estim": 6238, "lie": 6239, "liter": 6240, "reser": 6241, "pores": 6242, "posing": 6243, "Refine": 6244, "park": 6245, "Become": 6246, "illa": 6247, "reless": 6248, "timing": 6249, "followers": 6250, "impressive": 6251, "fibers": 6252, "thank": 6253, "submission": 6254, "performances": 6255, "instances": 6256, "showcasing": 6257, "eyebrows": 6258, "Command": 6259, "Resources": 6260, "Perfect": 6261, "garlic": 6262, "enemy": 6263, "committed": 6264, "burning": 6265, "reliability": 6266, "displaying": 6267, "itchen": 6268, "prone": 6269, "Speed": 6270, "folio": 6271, "surroundings": 6272, "...\"": 6273, "scores": 6274, "vacuum": 6275, "fuel": 6276, "willingness": 6277, "garden": 6278, "Number": 6279, "Enhance": 6280, "extracurricular": 6281, "Confidence": 6282, "Block": 6283, "Even": 6284, "Hab": 6285, "MS": 6286, "Mast": 6287, "Prin": 6288, "Redu": 6289, "eco": 6290, "lation": 6291, "nment": 6292, "pace": 6293, "sac": 6294, "vic": 6295, "ined": 6296, "seen": 6297, "entries": 6298, "coats": 6299, "ecraft": 6300, "ghter": 6301, "rig": 6302, "beans": 6303, "fears": 6304, "mination": 6305, "Insert": 6306, "blem": 6307, "ifications": 6308, "regim": 6309, "umn": 6310, "Adap": 6311, "Enable": 6312, "Device": 6313, "genre": 6314, "lessly": 6315, "subst": 6316, "marri": 6317, "Regardless": 6318, "English": 6319, "Tran": 6320, "extreme": 6321, "chemical": 6322, "barri": 6323, "nonverbal": 6324, "Sugg": 6325, "Outline": 6326, "therapists": 6327, "graphics": 6328, "occasions": 6329, "outlining": 6330, "revealing": 6331, "bacterial": 6332, "plug": 6333, "acceptable": 6334, "Respond": 6335, "arrangements": 6336, "hope": 6337, "Generally": 6338, "intervention": 6339, "refining": 6340, "desktop": 6341, "historical": 6342, "DI": 6343, "Page": 6344, "asible": 6345, "hanging": 6346, "mies": 6347, "sl": 6348, "turing": 6349, "tank": 6350, "vs": 6351, "inno": 6352, "erfections": 6353, "estee": 6354, "lease": 6355, "stur": 6356, "lify": 6357, "sues": 6358, "proportions": 6359, "addition": 6360, "adults": 6361, "unk": 6362, "vite": 6363, "feasible": 6364, "iper": 6365, "quad": 6366, "tube": 6367, "tuck": 6368, "Promp": 6369, "odor": 6370, "breeding": 6371, "depends": 6372, "facts": 6373, "funds": 6374, "attributes": 6375, "cultures": 6376, "capital": 6377, "soften": 6378, "priorities": 6379, "prompt": 6380, "embo": 6381, "markers": 6382, "bringing": 6383, "recognition": 6384, "squee": 6385, "accessibility": 6386, "emphasize": 6387, "compliments": 6388, "shelves": 6389, "Valid": 6390, "jackets": 6391, "compelling": 6392, "veterinarian": 6393, "affordable": 6394, "Smooth": 6395, "Routine": 6396, "interfere": 6397, "\".": 6398, "Drop": 6399, "Fac": 6400, "Found": 6401, "Saf": 6402, "Vo": 6403, "clin": 6404, "em": 6405, "olive": 6406, "pel": 6407, "ranges": 6408, "tough": 6409, "inci": 6410, "inform": 6411, "enrich": 6412, "lex": 6413, "login": 6414, "abul": 6415, "adult": 6416, "vill": 6417, "iped": 6418, "tends": 6419, "comput": 6420, "upright": 6421, "tast": 6422, "quir": 6423, "corre": 6424, "license": 6425, "specified": 6426, "Produ": 6427, "flaw": 6428, "Point": 6429, "medications": 6430, "confront": 6431, "Any": 6432, "letting": 6433, "accountability": 6434, "combination": 6435, "combining": 6436, "contributions": 6437, "frag": 6438, "fluctu": 6439, "hale": 6440, "Cloud": 6441, "boxes": 6442, "Stru": 6443, "fewer": 6444, "Blue": 6445, "Authentic": 6446, "Calm": 6447, "defining": 6448, "Employ": 6449, "pulling": 6450, "-----------------------": 6451, "recipient": 6452, "companies": 6453, "microfiber": 6454, "thickness": 6455, "delete": 6456, "Friends": 6457, "registration": 6458, "weapon": 6459, "Transfer": 6460, "strokes": 6461, "toxic": 6462, "parallel": 6463, "Safari": 6464, "AM": 6465, "Bur": 6466, "Call": 6467, "Email": 6468, "Hard": 6469, "Making": 6470, "Tar": 6471, "Twit": 6472, "Wri": 6473, "font": 6474, "hats": 6475, "pray": 6476, "zy": 6477, "thered": 6478, "liers": 6479, "itations": 6480, "conferences": 6481, "rise": 6482, "shot": 6483, "exchange": 6484, "oom": 6485, "Convers": 6486, "ilies": 6487, "bott": 6488, "commer": 6489, "offline": 6490, "racking": 6491, "signal": 6492, "counting": 6493, "welling": 6494, "sym": 6495, "evening": 6496, "occup": 6497, "appearing": 6498, "caulk": 6499, "designing": 6500, "developed": 6501, "typing": 6502, "Discord": 6503, "eyeliner": 6504, "professionalism": 6505, "Train": 6506, "Contents": 6507, "functioning": 6508, "qualified": 6509, "currently": 6510, "Leave": 6511, "payments": 6512, "mixed": 6513, "operations": 6514, "achieved": 6515, "employment": 6516, "flowers": 6517, "ilitary": 6518, "pictures": 6519, "expanding": 6520, "authorized": 6521, "watching": 6522, "affirm": 6523, "channel": 6524, "coordination": 6525, "adventure": 6526, "ethical": 6527, "agram": 6528, "delivering": 6529, "Strength": 6530, "boyfriend": 6531, "Script": 6532, "Therap": 6533, "Twitter": 6534, "\")": 6535, "90": 6536, "Eli": 6537, "Events": 6538, "Lower": 6539, "Men": 6540, "Pet": 6541, "Paren": 6542, "Sli": 6543, "Spo": 6544, "blow": 6545, "gro": 6546, "gir": 6547, "hub": 6548, "hurt": 6549, "kiped": 6550, "mm": 6551, "nurturing": 6552, "pad": 6553, "rus": 6554, "venti": 6555, "resume": 6556, "escal": 6557, "toy": 6558, "today": 6559, "deposi": 6560, "deck": 6561, "little": 6562, "protocol": 6563, "abra": 6564, "admin": 6565, "rice": 6566, "did": 6567, "verification": 6568, "posed": 6569, "sparing": 6570, "string": 6571, "That": 6572, "elly": 6573, "Incorporate": 6574, "rule": 6575, "Expect": 6576, "asting": 6577, "enclo": 6578, "ference": 6579, "Stor": 6580, "closer": 6581, "profit": 6582, "stylish": 6583, "rinsing": 6584, "showcases": 6585, "speeds": 6586, "stuff": 6587, "Maintenance": 6588, "herbs": 6589, "pants": 6590, "enemies": 6591, "tracks": 6592, "frames": 6593, "Family": 6594, "basics": 6595, "purchases": 6596, "shading": 6597, "hobby": 6598, "World": 6599, "solve": 6600, "convenience": 6601, "Empathy": 6602, "investi": 6603, "scalp": 6604, "Surround": 6605, "descriptions": 6606, "compliance": 6607, "threats": 6608, "destination": 6609, "reminders": 6610, "explicitly": 6611, "Examine": 6612, "wrinkles": 6613, "discouraged": 6614, "latest": 6615, "Mastering": 6616, "esteem": 6617, "tastes": 6618, "kipedia": 6619, "sparingly": 6620, "Band": 6621, "Bar": 6622, "Cr": 6623, "Gar": 6624, "Je": 6625, "Sc": 6626, "Source": 6627, "ama": 6628, "cents": 6629, "dou": 6630, "dash": 6631, "falls": 6632, "gments": 6633, "ian": 6634, "ka": 6635, "oval": 6636, "refrain": 6637, "alse": 6638, "toma": 6639, "cone": 6640, "ulated": 6641, "edding": 6642, "dia": 6643, "poly": 6644, "Changing": 6645, "planned": 6646, "brace": 6647, "needle": 6648, "everyday": 6649, "porting": 6650, "carpet": 6651, "Preferences": 6652, "approaching": 6653, "Management": 6654, "Art": 6655, "perfectly": 6656, "kids": 6657, "Blend": 6658, "Instagram": 6659, "execute": 6660, "attached": 6661, "Services": 6662, "Budget": 6663, "momentum": 6664, "consent": 6665, "mechanics": 6666, "Rune": 6667, "Protect": 6668, "Strategies": 6669, "differ": 6670, "evolving": 6671, "harmony": 6672, "elevate": 6673, "Providing": 6674, "vincing": 6675, "Calculate": 6676, "victories": 6677, "admiration": 6678, "maneu": 6679, "pillow": 6680, "(<": 6681, "39": 6682, "Best": 6683, "CR": 6684, "Please": 6685, "UV": 6686, "Vol": 6687, "cm": 6688, "eting": 6689, "gaining": 6690, "pure": 6691, "tact": 6692, "zones": 6693, "retention": 6694, "erals": 6695, "till": 6696, "togg": 6697, "acne": 6698, "entr": 6699, "iso": 6700, "wireless": 6701, "ulating": 6702, "ederal": 6703, "vise": 6704, "mative": 6705, "excep": 6706, "traction": 6707, "socks": 6708, "amins": 6709, "ifting": 6710, "foam": 6711, "overcome": 6712, "warning": 6713, "bleach": 6714, "relative": 6715, "stems": 6716, "gathered": 6717, "cleanup": 6718, "openings": 6719, "emotion": 6720, "And": 6721, "captivating": 6722, "cautions": 6723, "wheels": 6724, "musical": 6725, "sitting": 6726, "aims": 6727, "embarking": 6728, "nutritious": 6729, "experts": 6730, "vegetable": 6731, "attachment": 6732, "Quick": 6733, "targeting": 6734, "automatic": 6735, "failure": 6736, "struggles": 6737, "Minecraft": 6738, "concealer": 6739, "activation": 6740, "belongings": 6741, "metrics": 6742, "introspection": 6743, "rhythm": 6744, "Dragon": 6745, "(-": 6746, "Dist": 6747, "EP": 6748, "Er": 6749, "Others": 6750, "Twi": 6751, "Temp": 6752, "Wood": 6753, "Wash": 6754, "`,": 6755, "bad": 6756, "dden": 6757, "eties": 6758, "gloss": 6759, "iOS": 6760, "slight": 6761, "reo": 6762, "telling": 6763, "siveness": 6764, "seven": 6765, "liver": 6766, "ison": 6767, "los": 6768, "pros": 6769, "rights": 6770, "shi": 6771, "vert": 6772, "vertically": 6773, "motor": 6774, "pod": 6775, "bodies": 6776, "stands": 6777, "Chris": 6778, "custo": 6779, "complexi": 6780, "Pot": 6781, "views": 6782, "whose": 6783, "individuality": 6784, "responsibly": 6785, "boot": 6786, "------------------------------------------------": 6787, "milk": 6788, "trip": 6789, "Track": 6790, "stock": 6791, "panels": 6792, "storm": 6793, "crab": 6794, "researching": 6795, "shaped": 6796, "references": 6797, "definition": 6798, "Serve": 6799, "treated": 6800, "Consistently": 6801, "scholar": 6802, "snacks": 6803, "recipes": 6804, "mascara": 6805, "Starting": 6806, "reinforcement": 6807, "annual": 6808, "quantity": 6809, "exactly": 6810, "Timing": 6811, "assembly": 6812, "Popular": 6813, "alike": 6814, "titles": 6815, "administr": 6816, "refrigerator": 6817, "obligations": 6818, "sturdy": 6819, "AS": 6820, "God": 6821, "Lar": 6822, "Lab": 6823, "Send": 6824, "Sho": 6825, "bend": 6826, "cab": 6827, "cking": 6828, "cart": 6829, "fight": 6830, "fric": 6831, "kitchen": 6832, "ranging": 6833, "sna": 6834, "uals": 6835, "zes": 6836, "infect": 6837, "thus": 6838, "orous": 6839, "activate": 6840, "degre": 6841, "depression": 6842, "proactive": 6843, "adder": 6844, "edit": 6845, "ridge": 6846, "exit": 6847, "ared": 6848, "olf": 6849, "idity": 6850, "regulation": 6851, "included": 6852, "cutic": 6853, "athle": 6854, "smud": 6855, "charges": 6856, "productive": 6857, "portfolio": 6858, "successes": 6859, "Acqui": 6860, "professionally": 6861, "drivers": 6862, "skincare": 6863, "releasing": 6864, "trim": 6865, "Associ": 6866, "amps": 6867, "anguages": 6868, "associations": 6869, "concern": 6870, "schools": 6871, "Objec": 6872, "footwear": 6873, "graphic": 6874, "findings": 6875, "silk": 6876, "Designate": 6877, "lifespan": 6878, "international": 6879, "enthusiasts": 6880, "accidents": 6881, "belts": 6882, "failures": 6883, "accommod": 6884, "seamlessly": 6885, "Present": 6886, "dream": 6887, "arguments": 6888, "Interests": 6889, "vitamins": 6890, "resolve": 6891, "configuration": 6892, "Realistic": 6893, "ammation": 6894, "Environment": 6895, "sensitivity": 6896, "AC": 6897, "AT": 6898, "Ball": 6899, "Mus": 6900, "Pick": 6901, "aer": 6902, "bling": 6903, "epo": 6904, "ered": 6905, "fry": 6906, "f39": 6907, "iously": 6908, "lled": 6909, "tan": 6910, "tour": 6911, "uro": 6912, "va": 6913, "wn": 6914, "inser": 6915, "remin": 6916, "ony": 6917, "teas": 6918, "lemon": 6919, "aces": 6920, "istered": 6921, "logging": 6922, "adopt": 6923, "restore": 6924, "heels": 6925, "explanation": 6926, "poon": 6927, "amid": 6928, "tender": 6929, "creations": 6930, "agent": 6931, "agers": 6932, "Conduct": 6933, "Inves": 6934, "rafting": 6935, "endor": 6936, "Chan": 6937, "intervals": 6938, "Stre": 6939, "survi": 6940, "imperfections": 6941, "allowing": 6942, "closing": 6943, "handy": 6944, "gger": 6945, "inviting": 6946, "opens": 6947, "blush": 6948, "ballo": 6949, "boosts": 6950, "rushing": 6951, "Antic": 6952, "studies": 6953, "Compli": 6954, "Computer": 6955, "Afterward": 6956, "Comfort": 6957, "transmission": 6958, "prioriti": 6959, "gym": 6960, "Update": 6961, "freshness": 6962, "rupt": 6963, "sleeping": 6964, "worldwide": 6965, "electric": 6966, "Expand": 6967, "durable": 6968, "politely": 6969, "businesses": 6970, "sweep": 6971, "Cali": 6972, "Pursue": 6973, "pushing": 6974, "brake": 6975, "Special": 6976, "distinctive": 6977, "battles": 6978, "stretching": 6979, "diseases": 6980, "vulnerability": 6981, "inflammation": 6982, "volunteering": 6983, "Required": 6984, "intimacy": 6985, "LED": 6986, "Similarly": 6987, "ratings": 6988, "religious": 6989, "permanent": 6990, "Tailor": 6991, "stunning": 6992, "Privacy": 6993, "oubleshooting": 6994, "Storage": 6995, "70": 6996, "Cour": 6997, "Link": 6998, "May": 6999, "Scape": 7000, "Yoga": 7001, "cris": 7002, "cache": 7003, "ik": 7004, "score": 7005, "react": 7006, "retail": 7007, "returns": 7008, "alo": 7009, "arra": 7010, "suited": 7011, "mptions": 7012, "ressions": 7013, "unit": 7014, "urity": 7015, "amination": 7016, "agencies": 7017, "Think": 7018, "avity": 7019, "Inclu": 7020, "Ingre": 7021, "contamination": 7022, "Changes": 7023, "calend": 7024, "curren": 7025, "backgrounds": 7026, "locating": 7027, "consists": 7028, "blan": 7029, "attack": 7030, "Accept": 7031, "typical": 7032, "putting": 7033, "relev": 7034, "Security": 7035, "controlling": 7036, "quicker": 7037, "combined": 7038, "controlled": 7039, "fragr": 7040, "lukewarm": 7041, "posting": 7042, "Manager": 7043, "Skin": 7044, "slip": 7045, "defense": 7046, "explain": 7047, "Breath": 7048, "Decor": 7049, "soapy": 7050, "eligibility": 7051, "widely": 7052, "greatly": 7053, "Effectively": 7054, "decorative": 7055, "yields": 7056, "scratch": 7057, "Drawing": 7058, "tricks": 7059, "allerg": 7060, "illustr": 7061, "spiritual": 7062, "detergent": 7063, "heavily": 7064, "Panel": 7065, "assumptions": 7066, "fulfillment": 7067, "abulary": 7068, "Structure": 7069, "RuneScape": 7070, "degrees": 7071, "Cross": 7072, "FT": 7073, "IS": 7074, "LG": 7075, "Patter": 7076, "Sun": 7077, "cats": 7078, "dict": 7079, "lash": 7080, "oli": 7081, "papers": 7082, "rish": 7083, "twe": 7084, "tong": 7085, "wis": 7086, "winter": 7087, "zone": 7088, "rec": 7089, "ery": 7090, "escape": 7091, "convincing": 7092, "beloved": 7093, "shoo": 7094, "soak": 7095, "Recomm": 7096, "cloud": 7097, "prep": 7098, "Constru": 7099, "orses": 7100, "Child": 7101, "offensive": 7102, "personally": 7103, "gos": 7104, "odors": 7105, "Plat": 7106, "cultivating": 7107, "boots": 7108, "cardio": 7109, "Shad": 7110, "dryer": 7111, "talent": 7112, "visa": 7113, "stitu": 7114, "membership": 7115, "journaling": 7116, "deno": 7117, "sincerely": 7118, "component": 7119, "gained": 7120, "etiquette": 7121, "exposed": 7122, "continuing": 7123, "vocal": 7124, "indicators": 7125, "torso": 7126, "error": 7127, "clarify": 7128, "Submit": 7129, "seasonal": 7130, "-------------------------": 7131, "repeated": 7132, "---------------------------------------": 7133, "moderate": 7134, "involvement": 7135, "certification": 7136, "burnout": 7137, "equally": 7138, "volunteer": 7139, "reasonable": 7140, "hamster": 7141, "drinks": 7142, "government": 7143, "rejection": 7144, "percentage": 7145, "Utilizing": 7146, "Benefits": 7147, "DIY": 7148, "affirmations": 7149, "Ingredients": 7150, "200": 7151, "Ali": 7152, "Alex": 7153, "Eyes": 7154, "Ge": 7155, "Gri": 7156, "Mail": 7157, "OM": 7158, "Penc": 7159, "blin": 7160, "gli": 7161, "hn": 7162, "jaw": 7163, "mouse": 7164, "pH": 7165, "satur": 7166, "tors": 7167, "reassess": 7168, "enforce": 7169, "allocate": 7170, "roof": 7171, "lids": 7172, "assets": 7173, "lose": 7174, "suc": 7175, "icy": 7176, "ulties": 7177, "beat": 7178, "apes": 7179, "uncertain": 7180, "heal": 7181, "===": 7182, "mod": 7183, "mobility": 7184, "pool": 7185, "trau": 7186, "soph": 7187, "tains": 7188, "ffy": 7189, "estate": 7190, "timely": 7191, "enger": 7192, "settle": 7193, "signing": 7194, "signature": 7195, "gins": 7196, "bread": 7197, "breeds": 7198, "scroll": 7199, "Keeping": 7200, "medication": 7201, "Apps": 7202, "turtle": 7203, "empow": 7204, "distances": 7205, "capturing": 7206, "significance": 7207, "filing": 7208, "promotions": 7209, "instant": 7210, "guard": 7211, "gameplay": 7212, "stitch": 7213, "grease": 7214, "greens": 7215, "Needs": 7216, "customization": 7217, "meanor": 7218, "Diet": 7219, "Team": 7220, "difficulties": 7221, "mesh": 7222, "integration": 7223, "iconic": 7224, "conditioner": 7225, "evaluation": 7226, "lipstick": 7227, "Service": 7228, "enabled": 7229, "scenes": 7230, "Personalize": 7231, "absorption": 7232, "linked": 7233, "Knowledge": 7234, "scheduling": 7235, "convert": 7236, "Early": 7237, "detection": 7238, "sketching": 7239, "moisturizer": 7240, "intimid": 7241, "rapidly": 7242, "Education": 7243, "gracefully": 7244, "perceived": 7245, "Promote": 7246, "HTML": 7247, "regimen": 7248, "Adapt": 7249, "Foundation": 7250, "commercial": 7251, ".).": 7252, "Dev": 7253, "IV": 7254, "Maps": 7255, "Rot": 7256, "Sing": 7257, "Sto": 7258, "Touches": 7259, "\\*": 7260, "`.": 7261, "athetic": 7262, "cables": 7263, "ium": 7264, "itial": 7265, "narra": 7266, "patches": 7267, "savings": 7268, "uation": 7269, "iny": 7270, "retri": 7271, "onic": 7272, "anci": 7273, "demeanor": 7274, "uice": 7275, "essence": 7276, "unks": 7277, "soaking": 7278, "neigh": 7279, "spent": 7280, "amic": 7281, "agents": 7282, "agger": 7283, "minerals": 7284, "precautions": 7285, "boiling": 7286, "Initial": 7287, "corn": 7288, "calming": 7289, "steam": 7290, "Adhere": 7291, "Stress": 7292, "manner": 7293, "skillset": 7294, "hairstyle": 7295, "merge": 7296, "drives": 7297, "spelling": 7298, "Disney": 7299, "loyalty": 7300, "exercising": 7301, "updating": 7302, "finishes": 7303, "motivations": 7304, "Location": 7305, "swee": 7306, "jobs": 7307, "ometric": 7308, "composed": 7309, "influences": 7310, "horizons": 7311, "Empha": 7312, "Ideal": 7313, "elsewhere": 7314, "Implementing": 7315, "formulated": 7316, "wrist": 7317, "acquire": 7318, "Appropriately": 7319, "Trim": 7320, "Importance": 7321, "query": 7322, "adventures": 7323, "SEO": 7324, "Hydr": 7325, "scheme": 7326, "sustainable": 7327, "library": 7328, "Politely": 7329, "Optimize": 7330, "potatoes": 7331, "pregnancy": 7332, "protocols": 7333, "complexion": 7334, "Center": 7335, "Def": 7336, "HD": 7337, "Less": 7338, "Mark": 7339, "ND": 7340, "Ni": 7341, "Tex": 7342, "Vari": 7343, "clock": 7344, "ckets": 7345, "fes": 7346, "fles": 7347, "google": 7348, "kic": 7349, "kill": 7350, "languages": 7351, "military": 7352, "praise": 7353, "ruler": 7354, "tapping": 7355, "uate": 7356, "vamp": 7357, "inc": 7358, "info": 7359, "insul": 7360, "reset": 7361, "refresh": 7362, "ale": 7363, "tel": 7364, "youts": 7365, "atar": 7366, "acids": 7367, "cohesive": 7368, "dive": 7369, "mold": 7370, "trading": 7371, "ounding": 7372, "comparing": 7373, "ured": 7374, "forehead": 7375, "neces": 7376, "disorder": 7377, "autom": 7378, "eves": 7379, "angular": 7380, "Coord": 7381, "impo": 7382, "brings": 7383, "fying": 7384, "cleanliness": 7385, "breast": 7386, "subscrip": 7387, "seems": 7388, "Heat": 7389, "caring": 7390, "quests": 7391, "ception": 7392, "mented": 7393, "reaches": 7394, "cooper": 7395, "ogurt": 7396, "messaging": 7397, "Negoti": 7398, "reflecting": 7399, "flush": 7400, "gains": 7401, "affects": 7402, "nutritional": 7403, "puts": 7404, "Colle": 7405, "measurement": 7406, "remote": 7407, "toothpaste": 7408, "composition": 7409, "magic": 7410, "separately": 7411, "repetition": 7412, "paths": 7413, "falling": 7414, "supervision": 7415, "speaker": 7416, "independently": 7417, "queries": 7418, "habitat": 7419, "----------------------------------------------": 7420, "Require": 7421, "drinking": 7422, "skilled": 7423, "chopped": 7424, "threads": 7425, "campaigns": 7426, "vocabulary": 7427, "Multip": 7428, "computers": 7429, "doub": 7430, "Alexa": 7431, "('": 7432, "Ama": 7433, "Ded": 7434, "Ess": 7435, "Girl": 7436, "Gloves": 7437, "Kind": 7438, "Sn": 7439, "Too": 7440, "dit": 7441, "ees": 7442, "hiring": 7443, "nish": 7444, "pron": 7445, "router": 7446, "sad": 7447, "vable": 7448, "waves": 7449, "ingu": 7450, "arrive": 7451, "accents": 7452, "itches": 7453, "meters": 7454, "sudden": 7455, "confir": 7456, "rim": 7457, "unusual": 7458, "math": 7459, "shift": 7460, "creatures": 7461, "iders": 7462, "Regi": 7463, "mbing": 7464, "minal": 7465, "grant": 7466, "roughly": 7467, "contour": 7468, "redness": 7469, "enders": 7470, "sively": 7471, "curves": 7472, "interactive": 7473, "surve": 7474, "Deal": 7475, "considerations": 7476, "loosen": 7477, "individually": 7478, "Shift": 7479, "caffe": 7480, "-----------------------------------": 7481, "trial": 7482, "transformation": 7483, "routes": 7484, "combine": 7485, "qualifications": 7486, "relaxing": 7487, "packaging": 7488, "broken": 7489, "structured": 7490, "obtained": 7491, "halfway": 7492, "felt": 7493, "emerging": 7494, "--------------------------": 7495, "Technique": 7496, "repeti": 7497, "requested": 7498, "hooks": 7499, "vehicles": 7500, "examine": 7501, "certifications": 7502, "oxid": 7503, "accumulation": 7504, "accumulate": 7505, "struggle": 7506, "giveness": 7507, "tiny": 7508, "imaginary": 7509, "Browse": 7510, "folders": 7511, "science": 7512, "scarves": 7513, "ratio": 7514, "Relationships": 7515, "database": 7516, "prospective": 7517, "Validate": 7518, "bottles": 7519, "dashboard": 7520, "Christian": 7521, "wisdom": 7522, "Pencil": 7523, "Coo": 7524, "Eat": 7525, "Edge": 7526, "Fab": 7527, "Gl": 7528, "Gu": 7529, "HR0": 7530, "Wr": 7531, "_Key": 7532, "bac": 7533, "bins": 7534, "backing": 7535, "dd": 7536, "gon": 7537, "jelly": 7538, "juice": 7539, "lli": 7540, "n5": 7541, "png": 7542, "van": 7543, "replacing": 7544, "lef": 7545, "sici": 7546, "dees": 7547, "sea": 7548, "seat": 7549, "isol": 7550, "iction": 7551, "icine": 7552, "adjac": 7553, "held": 7554, "herent": 7555, "mentation": 7556, "mentary": 7557, "poll": 7558, "permissions": 7559, "spam": 7560, "foil": 7561, "cancell": 7562, "strings": 7563, "Report": 7564, "tainable": 7565, "Individu": 7566, "worn": 7567, "club": 7568, "dots": 7569, "peel": 7570, "Execu": 7571, "primer": 7572, "relat": 7573, "experimenting": 7574, "hosting": 7575, "Together": 7576, "supply": 7577, "readily": 7578, "viewing": 7579, "attendees": 7580, "mises": 7581, "tails": 7582, "Should": 7583, "ationale": 7584, "concerning": 7585, "ogies": 7586, "ondant": 7587, "sale": 7588, "recipro": 7589, "stretches": 7590, "earned": 7591, "Tech": 7592, "prints": 7593, "industri": 7594, "iPad": 7595, "grill": 7596, "http": 7597, "shaping": 7598, "hydrates": 7599, "Supp": 7600, "calculating": 7601, "floors": 7602, "darker": 7603, "zzles": 7604, "authority": 7605, "utility": 7606, "Smart": 7607, "Current": 7608, "diagon": 7609, "conscious": 7610, "alert": 7611, "electronics": 7612, "conduct": 7613, "acceptance": 7614, "encountering": 7615, "dominant": 7616, "argument": 7617, "heavier": 7618, "streamline": 7619, "JavaScript": 7620, "Fitbit": 7621, "endeavors": 7622, "tackle": 7623, "communicating": 7624, "intellectual": 7625, "Questions": 7626, "sacri": 7627, "amidst": 7628, "relevance": 7629, "HR0f39": 7630, "adjacent": 7631, "Bus": 7632, "CA": 7633, "Clar": 7634, "FS": 7635, "Files": 7636, "Foot": 7637, "Hear": 7638, "Of": 7639, "Swi": 7640, "cco": 7641, "cake": 7642, "floss": 7643, "fn5": 7644, "goods": 7645, "ible": 7646, "jack": 7647, "kin": 7648, "oily": 7649, "snu": 7650, "varies": 7651, "zon": 7652, "legi": 7653, "atin": 7654, "robust": 7655, "accent": 7656, "deals": 7657, "seas": 7658, "seating": 7659, "ental": 7660, "chand": 7661, "hearing": 7662, "diversity": 7663, "shifts": 7664, "verages": 7665, "ides": 7666, "straps": 7667, "Reading": 7668, "etal": 7669, "registered": 7670, "Strive": 7671, "downwards": 7672, "communications": 7673, "division": 7674, "incredi": 7675, "consisting": 7676, "listing": 7677, "tilled": 7678, "valued": 7679, "culinary": 7680, "families": 7681, "Accur": 7682, "Moz": 7683, "freely": 7684, "guine": 7685, "extension": 7686, "importantly": 7687, "assessing": 7688, "humidity": 7689, "frustr": 7690, "laun": 7691, "breakage": 7692, "cooler": 7693, "bowls": 7694, "sembling": 7695, "Community": 7696, "marked": 7697, "collaborative": 7698, "remover": 7699, "calculations": 7700, "representation": 7701, "numer": 7702, "conventions": 7703, "Participating": 7704, "traveling": 7705, "Explorer": 7706, "overwhelmed": 7707, "Backup": 7708, "accident": 7709, "synthetic": 7710, "cosplay": 7711, "acquiring": 7712, "birds": 7713, "Layer": 7714, "regions": 7715, "Relax": 7716, "crowd": 7717, "Electr": 7718, "quotes": 7719, "Public": 7720, "mirror": 7721, "notifications": 7722, "Estimated": 7723, "Tutorial": 7724, "Habits": 7725, "podcasts": 7726, "lefto": 7727, "Gra": 7728, "Hor": 7729, "Opp": 7730, "Pr": 7731, "RS": 7732, "Swe": 7733, "dating": 7734, "fli": 7735, "gas": 7736, "ht": 7737, "hash": 7738, "mits": 7739, "vative": 7740, "wax": 7741, "indoor": 7742, "rear": 7743, "thrive": 7744, "orange": 7745, "station": 7746, "sip": 7747, "demo": 7748, "defe": 7749, "semin": 7750, "limbs": 7751, "cha": 7752, "metry": 7753, "wig": 7754, "wider": 7755, "ghting": 7756, "respected": 7757, "beach": 7758, "vil": 7759, "terrain": 7760, "canvas": 7761, "iden": 7762, "stract": 7763, "immun": 7764, "Rece": 7765, "minum": 7766, "premi": 7767, "gry": 7768, "grain": 7769, "novel": 7770, "offic": 7771, "prise": 7772, "hydro": 7773, "curved": 7774, "curring": 7775, "persona": 7776, "Ensuring": 7777, "manship": 7778, "gative": 7779, "watering": 7780, "divided": 7781, "lingering": 7782, "viewers": 7783, "fertili": 7784, "Soak": 7785, "logies": 7786, "shower": 7787, "Compo": 7788, "guy": 7789, "guards": 7790, "Members": 7791, "presenting": 7792, "transactions": 7793, "layering": 7794, "homework": 7795, "storing": 7796, "Lead": 7797, "cooling": 7798, "bonding": 7799, "honey": 7800, "busy": 7801, "finishing": 7802, "analyzing": 7803, "competitions": 7804, "matte": 7805, "dirty": 7806, "mastery": 7807, "trained": 7808, "aggression": 7809, "accepting": 7810, "broader": 7811, "fHx9FRUVDR0dHR0f39": 7812, "Release": 7813, "disturbed": 7814, "movie": 7815, "schemes": 7816, "crossing": 7817, "skillet": 7818, "fHx9FRUVDR0dfHx9FRUVDR0dfHx9FRUVDR0dHR0f39": 7819, "cXFxcXFx": 7820, "instructors": 7821, "summarizing": 7822, "suffice": 7823, "institutions": 7824, "Growth": 7825, "Moisturi": 7826, "embody": 7827, "fluctuations": 7828, "tactfully": 7829, "Anticipate": 7830, "intimidating": 7831, "ccoli": 7832, "guinea": 7833, "cXFxcXFxfHx9FRUVDR0dfHx9FRUVDR0dfHx9FRUVDR0dHR0f39": 7834, "Bra": 7835, "Brain": 7836, "Craft": 7837, "Dip": 7838, "His": 7839, "Jap": 7840, "Journ": 7841, "Lati": 7842, "Phone": 7843, "Sti": 7844, "Tow": 7845, "aways": 7846, "bru": 7847, "hover": 7848, "ients": 7849, "iTun": 7850, "kers": 7851, "labor": 7852, "nights": 7853, "tabs": 7854, "vast": 7855, "yogurt": 7856, "zip": 7857, "returning": 7858, "thigh": 7859, "erie": 7860, "tible": 7861, "toler": 7862, "stal": 7863, "stab": 7864, "del": 7865, "props": 7866, "console": 7867, "abet": 7868, "aping": 7869, "unt": 7870, "diame": 7871, "shallow": 7872, "shifting": 7873, "lla": 7874, "lint": 7875, "spa": 7876, "compass": 7877, "upset": 7878, "agility": 7879, "ague": 7880, "elastic": 7881, "deser": 7882, "Extend": 7883, "calor": 7884, "hilo": 7885, "follows": 7886, "dye": 7887, "restaur": 7888, "cute": 7889, "varieties": 7890, "consistencies": 7891, "listings": 7892, "According": 7893, "heading": 7894, "migr": 7895, "promotional": 7896, "stery": 7897, "vigil": 7898, "guest": 7899, "runs": 7900, "cheeks": 7901, "Finish": 7902, "enetr": 7903, "lug": 7904, "Such": 7905, "storytelling": 7906, "honing": 7907, "lengthy": 7908, "packages": 7909, "employees": 7910, "Completing": 7911, "composure": 7912, "----------------------": 7913, "facilitates": 7914, "-------------------------------------": 7915, "Handle": 7916, "formulas": 7917, "acquired": 7918, "visits": 7919, "rotation": 7920, "proficient": 7921, "candidate": 7922, "scrubbing": 7923, "Demonstrating": 7924, "disturb": 7925, "complementary": 7926, "stroke": 7927, "Feelings": 7928, "WordPress": 7929, "assertiveness": 7930, "couple": 7931, "digestion": 7932, "skirts": 7933, "marriage": 7934, "grocer": 7935, "Volunte": 7936, "Label": 7937, "blankets": 7938, "Align": 7939, "Requirements": 7940, "Japan": 7941, "iTunes": 7942, "500": 7943, "Ctr": 7944, "ES": 7945, "Foc": 7946, "Gmail": 7947, "Hot": 7948, "Image": 7949, "Natur": 7950, "OK": 7951, "Pil": 7952, "Route": 7953, "Vac": 7954, "Wal": 7955, "bly": 7956, "flying": 7957, "glo": 7958, "hook": 7959, "lace": 7960, "lau": 7961, "mers": 7962, "mang": 7963, "slots": 7964, "uting": 7965, "wand": 7966, "inconsistencies": 7967, "really": 7968, "reward": 7969, "recurring": 7970, "anno": 7971, "anches": 7972, "essions": 7973, "tea": 7974, "sivity": 7975, "depart": 7976, "sewing": 7977, "lions": 7978, "chi": 7979, "chic": 7980, "coding": 7981, "suming": 7982, "conclu": 7983, "adhes": 7984, "apter": 7985, "und": 7986, "heard": 7987, "shares": 7988, "mother": 7989, "fee": 7990, "female": 7991, "negle": 7992, "Three": 7993, "premature": 7994, "nod": 7995, "anywhere": 7996, "doctor": 7997, "discolor": 7998, "desires": 7999, "earth": 8000, "perior": 8001, "illness": 8002, "stereo": 8003, "valent": 8004, "othing": 8005, "imply": 8006, "fighting": 8007, "branches": 8008, "Plu": 8009, "substances": 8010, "Wikipedia": 8011, "Uni": 8012, "hairs": 8013, "marking": 8014, "attacking": 8015, "Appear": 8016, "Short": 8017, "musici": 8018, "Dispose": 8019, "priority": 8020, "Season": 8021, "Persist": 8022, "Finishing": 8023, "turned": 8024, "college": 8025, "collective": 8026, "collected": 8027, "holds": 8028, "bedding": 8029, "bedroom": 8030, "instruction": 8031, "behavioral": 8032, "shell": 8033, "Clas": 8034, "explaining": 8035, "classmates": 8036, "Listening": 8037, "grime": 8038, "sequence": 8039, "organizational": 8040, "folds": 8041, "secondary": 8042, "Personality": 8043, "bullying": 8044, "increasingly": 8045, "academ": 8046, "discovery": 8047, "Stardoll": 8048, "hitting": 8049, "-----------------------------------------": 8050, "versatility": 8051, "contractors": 8052, "dragon": 8053, "activated": 8054, "solidify": 8055, "Password": 8056, "configurations": 8057, "gradual": 8058, "sexual": 8059, "Achiev": 8060, "cherished": 8061, "neatly": 8062, "abrasive": 8063, "maneuver": 8064, "entrance": 8065, "Association": 8066, "sophistic": 8067, "Devices": 8068, "Negotiate": 8069, "caffeine": 8070, "diameter": 8071, "Ctrl": 8072, "Focusing": 8073, "Ano": 8074, "Again": 8075, "Bow": 8076, "Baking": 8077, "Hist": 8078, "Pen": 8079, "Sand": 8080, "Text": 8081, "Talk": 8082, "bite": 8083, "dated": 8084, "gly": 8085, "glow": 8086, "iCloud": 8087, "lates": 8088, "mort": 8089, "nes": 8090, "pren": 8091, "penetr": 8092, "sou": 8093, "uc": 8094, "vot": 8095, "intri": 8096, "incoming": 8097, "antial": 8098, "rocks": 8099, "acceler": 8100, "death": 8101, "coal": 8102, "wipes": 8103, "ulates": 8104, "bell": 8105, "diam": 8106, "magn": 8107, "expose": 8108, "mom": 8109, "usable": 8110, "perfection": 8111, "permits": 8112, "pla": 8113, "neither": 8114, "tending": 8115, "strict": 8116, "agre": 8117, "Remind": 8118, "appren": 8119, "Condition": 8120, "Consume": 8121, "bohydrates": 8122, "overl": 8123, "parks": 8124, "stepping": 8125, "owners": 8126, "steak": 8127, "timer": 8128, "hyper": 8129, "artment": 8130, "native": 8131, "impul": 8132, "newsp": 8133, "downward": 8134, "closed": 8135, "Format": 8136, "cleansing": 8137, "leaders": 8138, "Applications": 8139, "Activity": 8140, "appearances": 8141, "---------------------------------": 8142, "drib": 8143, "freezer": 8144, "practicality": 8145, "stir": 8146, "drawn": 8147, "Identifying": 8148, "cheese": 8149, "Financial": 8150, "barrel": 8151, "stressful": 8152, "Negative": 8153, "screens": 8154, "dense": 8155, "strike": 8156, "residual": 8157, "teammates": 8158, "sticking": 8159, "embark": 8160, "digit": 8161, "cription": 8162, "John": 8163, "pairs": 8164, "candy": 8165, "favorable": 8166, "swift": 8167, "determined": 8168, "jumps": 8169, "traditions": 8170, "central": 8171, "joints": 8172, "deletion": 8173, "punk": 8174, "applican": 8175, "Clothing": 8176, "replacement": 8177, "scoop": 8178, "oxide": 8179, "aspiring": 8180, "brightness": 8181, "announce": 8182, "Software": 8183, "sealant": 8184, "dreams": 8185, "immerse": 8186, "symbols": 8187, "instructor": 8188, "Correctly": 8189, "interpretation": 8190, "Challenge": 8191, "knots": 8192, "Prompt": 8193, "villain": 8194, "Target": 8195, "ventilation": 8196, "Expectations": 8197, "epover": 8198, "Emphasize": 8199, "cancellation": 8200, "accidentally": 8201, "Opportun": 8202, "identical": 8203, "\"[": 8204, "17": 8205, "DN": 8206, "Fish": 8207, "Hum": 8208, "Ima": 8209, "Job": 8210, "Land": 8211, "PE": 8212, "Pu": 8213, "Ru": 8214, "bits": 8215, "false": 8216, "goth": 8217, "iving": 8218, "nour": 8219, "pending": 8220, "tangles": 8221, "uli": 8222, "wave": 8223, "wrench": 8224, "recep": 8225, "eras": 8226, "ensemble": 8227, "arad": 8228, "states": 8229, "sian": 8230, "secre": 8231, "contrac": 8232, "ultimate": 8233, "beta": 8234, "gems": 8235, "unhealthy": 8236, "maga": 8237, "shown": 8238, "**\"": 8239, "ller": 8240, "extract": 8241, "exagger": 8242, "iry": 8243, "sover": 8244, "weights": 8245, "spices": 8246, "thermo": 8247, "ifies": 8248, "stric": 8249, "izations": 8250, "noting": 8251, "overhead": 8252, "ratic": 8253, "disc": 8254, "dispos": 8255, "angerous": 8256, "Cho": 8257, "regain": 8258, "End": 8259, "impress": 8260, "impressions": 8261, "readability": 8262, "charm": 8263, "missed": 8264, "Shape": 8265, "merchand": 8266, "countless": 8267, "Movi": 8268, "lifelong": 8269, "ribute": 8270, "decimal": 8271, "starts": 8272, "generated": 8273, "homemade": 8274, "realism": 8275, "cheek": 8276, "parental": 8277, "Direct": 8278, "instruments": 8279, "teamwork": 8280, "Managing": 8281, "programming": 8282, "puzzles": 8283, "passwords": 8284, "sliding": 8285, "imagery": 8286, "broccoli": 8287, "employing": 8288, "straightforward": 8289, "collaborate": 8290, "Auto": 8291, "Audi": 8292, "spaced": 8293, "removes": 8294, "competitors": 8295, "clarifying": 8296, "wanting": 8297, "bullet": 8298, "observation": 8299, "fascin": 8300, "---------------------": 8301, "Edward": 8302, "recipients": 8303, "script": 8304, "sensory": 8305, "veterinary": 8306, "carrying": 8307, "multiplayer": 8308, "engineering": 8309, "regional": 8310, "diction": 8311, "scienti": 8312, "landscape": 8313, "psychological": 8314, "Delete": 8315, "bubbles": 8316, "licensed": 8317, "transparency": 8318, "substantial": 8319, "Menu": 8320, "Spotify": 8321, "girls": 8322, "athletic": 8323, "Acquire": 8324, "prioritizing": 8325, "ruptcy": 8326, "Business": 8327, "Pilates": 8328, "magaz": 8329, ");": 8330, "35": 8331, "64": 8332, "Del": 8333, "FA": 8334, "Fu": 8335, "French": 8336, "Gal": 8337, "Gui": 8338, "Kit": 8339, "Mid": 8340, "Nutri": 8341, "Paint": 8342, "Ra": 8343, "Rationale": 8344, "Sound": 8345, "Scis": 8346, "Spot": 8347, "`<": 8348, "ba": 8349, "bent": 8350, "basi": 8351, "cry": 8352, "dinner": 8353, "dwelling": 8354, "fare": 8355, "flip": 8356, "gap": 8357, "hou": 8358, "ni": 8359, "pend": 8360, "penguin": 8361, "pipe": 8362, "random": 8363, "tent": 8364, "utic": 8365, "inspec": 8366, "incorrect": 8367, "reverse": 8368, "recall": 8369, "reports": 8370, "coin": 8371, "coach": 8372, "cock": 8373, "forgiveness": 8374, "suds": 8375, "promin": 8376, "geo": 8377, "une": 8378, "units": 8379, "urance": 8380, "exha": 8381, "lined": 8382, "outward": 8383, "traps": 8384, "plates": 8385, "soothing": 8386, "predict": 8387, "grants": 8388, "grasp": 8389, "Increase": 8390, "raising": 8391, "disorders": 8392, "disagreements": 8393, "endurance": 8394, "Adopting": 8395, "Stri": 8396, "rylic": 8397, "hosp": 8398, "dairy": 8399, "flair": 8400, "buff": 8401, "scrap": 8402, "prevention": 8403, "blade": 8404, "leader": 8405, "cavi": 8406, "empathetic": 8407, "protecting": 8408, "Disclaim": 8409, "trips": 8410, "triangle": 8411, "Assemble": 8412, "fitted": 8413, "progression": 8414, "structural": 8415, "ighting": 8416, "passing": 8417, "crack": 8418, "pays": 8419, "supported": 8420, "lush": 8421, "receip": 8422, "relief": 8423, "asked": 8424, "strengthening": 8425, "Working": 8426, "conditioning": 8427, "Performance": 8428, "Types": 8429, "calculated": 8430, "picking": 8431, "magical": 8432, "wooden": 8433, "Intel": 8434, "swim": 8435, "validation": 8436, "Background": 8437, "decorations": 8438, "deleting": 8439, "Strategically": 8440, "oxy": 8441, "coordin": 8442, "Minim": 8443, "Market": 8444, "quantities": 8445, "experimentation": 8446, "Travel": 8447, "companionship": 8448, "diagnosis": 8449, "bristle": 8450, "Achie": 8451, "sauce": 8452, "elegant": 8453, "\"></": 8454, "basketball": 8455, "Between": 8456, "Sugges": 8457, "Products": 8458, "Write": 8459, "Potter": 8460, "Channel": 8461, "Rotate": 8462, "Amazon": 8463, "Audience": 8464, "Blo": 8465, "Fine": 8466, "IN": 8467, "Lic": 8468, "National": 8469, "Pic": 8470, "Rob": 8471, "Room": 8472, "Squ": 8473, "TO": 8474, "biting": 8475, "cers": 8476, "dangerous": 8477, "gage": 8478, "haps": 8479, "horses": 8480, "ko": 8481, "scor": 8482, "ws": 8483, "wedding": 8484, "inev": 8485, "tidy": 8486, "ester": 8487, "statis": 8488, "atula": 8489, "acqu": 8490, "sili": 8491, "assurance": 8492, "forcing": 8493, "superior": 8494, "proposal": 8495, "ador": 8496, "editor": 8497, "unlock": 8498, "heres": 8499, "pertin": 8500, "trash": 8501, "spaw": 8502, "mble": 8503, "ettes": 8504, "Inside": 8505, "timeline": 8506, "pecting": 8507, "eving": 8508, "monster": 8509, "element": 8510, "Profile": 8511, "allowance": 8512, "resting": 8513, "approved": 8514, "cush": 8515, "cleanser": 8516, "exped": 8517, "expense": 8518, "opened": 8519, "readers": 8520, "viewpoints": 8521, "pointing": 8522, "Avail": 8523, "carbohydrates": 8524, "olutions": 8525, "instin": 8526, "directories": 8527, "pig": 8528, "wrapped": 8529, "walks": 8530, "generation": 8531, "browse": 8532, "Identi": 8533, "See": 8534, "rune": 8535, "bike": 8536, "sleeves": 8537, "crate": 8538, "orientation": 8539, "trustworthy": 8540, "versely": 8541, "swabs": 8542, "motivated": 8543, "Connecting": 8544, "spacing": 8545, "silhou": 8546, "Internet": 8547, "bulbs": 8548, "Issues": 8549, "Buy": 8550, "twist": 8551, "...": 8552, "shelf": 8553, "------------------------------------------": 8554, "Cutting": 8555, "yeast": 8556, "winning": 8557, "imagination": 8558, "conceal": 8559, "gardening": 8560, "wildlife": 8561, "peaceful": 8562, "libraries": 8563, "exhibit": 8564, "aphr": 8565, "Green": 8566, "homeschool": 8567, "enclosure": 8568, "bracelets": 8569, "friction": 8570, "balloon": 8571, "Compliment": 8572, "allergies": 8573, "Patterns": 8574, "jawline": 8575, "sweeten": 8576, "Cooking": 8577, "Fabric": 8578, "premium": 8579, "Latias": 8580, "migration": 8581, "Appearance": 8582, "Opportunities": 8583, "araderie": 8584, "fascinating": 8585, "Scissors": 8586, "pertinent": 8587, "22": 8588, "Aqu": 8589, "Act": 8590, "BB": 8591, "Bro": 8592, "Bay": 8593, "Dust": 8594, "Jump": 8595, "Low": 8596, "Old": 8597, "Rate": 8598, "Vir": 8599, "Wear": 8600, "fa": 8601, "federal": 8602, "fondant": 8603, "hang": 8604, "ky": 8605, "len": 8606, "loud": 8607, "pno": 8608, "invite": 8609, "toile": 8610, "stance": 8611, "roe": 8612, "acted": 8613, "segments": 8614, "entails": 8615, "chain": 8616, "cocon": 8617, "proactively": 8618, "atever": 8619, "advis": 8620, "riding": 8621, "uration": 8622, "derived": 8623, "spreading": 8624, "Refer": 8625, "=====": 8626, "izable": 8627, "apple": 8628, "Conditions": 8629, "disposal": 8630, "ruit": 8631, "tivation": 8632, "angled": 8633, "rowave": 8634, "Coins": 8635, "hire": 8636, "curling": 8637, "guided": 8638, "chores": 8639, "rectangle": 8640, "Plus": 8641, "markets": 8642, "headphones": 8643, "Without": 8644, "accessing": 8645, "Disk": 8646, "Mean": 8647, "enjoyed": 8648, "Selection": 8649, "Results": 8650, "aligning": 8651, "Tradi": 8652, "berry": 8653, "Spray": 8654, "striking": 8655, "Manual": 8656, "Artic": 8657, "Class": 8658, "simplify": 8659, "intage": 8660, "classroom": 8661, "constructing": 8662, "printer": 8663, "employers": 8664, "cookies": 8665, "compost": 8666, "eventually": 8667, "Syn": 8668, "celebration": 8669, "stimulate": 8670, "Measuring": 8671, "Measurable": 8672, "limiting": 8673, "camaraderie": 8674, "facilitating": 8675, "trainers": 8676, "noticeable": 8677, "eliminating": 8678, "punctu": 8679, "Value": 8680, "palette": 8681, "Throughout": 8682, "broaden": 8683, "negotiations": 8684, "browsers": 8685, "casting": 8686, "Practices": 8687, "referr": 8688, "ribbon": 8689, "massage": 8690, "debt": 8691, "constantly": 8692, "Publish": 8693, "Programs": 8694, "elegance": 8695, "chronic": 8696, "Christmas": 8697, "Successful": 8698, "PDF": 8699, "Facial": 8700, "Voice": 8701, "custody": 8702, "--------------------------------------------------": 8703, "Large": 8704, "snake": 8705, "retailers": 8706, "Platforms": 8707, "repeatedly": 8708, "Coordinate": 8709, "Dedicate": 8710, "sadness": 8711, "Supplies": 8712, "Mozilla": 8713, "html": 8714, "Natural": 8715, "Another": 8716, "overlapping": 8717, "Disclaimer": 8718, "!\"": 8719, ">`": 8720, "Am": 8721, "Action": 8722, "Bul": 8723, "Balls": 8724, "Categ": 8725, "Crush": 8726, "Dial": 8727, "Fold": 8728, "HB": 8729, "Its": 8730, "Kore": 8731, "Mob": 8732, "Sty": 8733, "Vary": 8734, "oak": 8735, "pt": 8736, "packing": 8737, "sar": 8738, "wrest": 8739, "inet": 8740, "renew": 8741, "thro": 8742, "timon": 8743, "ora": 8744, "likes": 8745, "isure": 8746, "chew": 8747, "chair": 8748, "chunks": 8749, "cope": 8750, "adop": 8751, "ride": 8752, "vid": 8753, "hem": 8754, "dilu": 8755, "urine": 8756, "owing": 8757, "poons": 8758, "permit": 8759, "creen": 8760, "compar": 8761, "compens": 8762, "upload": 8763, "Removing": 8764, "render": 8765, "Though": 8766, "grit": 8767, "Indu": 8768, "episo": 8769, "contamin": 8770, "Excel": 8771, "servers": 8772, "skip": 8773, "Advice": 8774, "careers": 8775, "allowed": 8776, "downs": 8777, "approval": 8778, "specifications": 8779, "tomach": 8780, "facilities": 8781, "hairstyles": 8782, "grows": 8783, "famous": 8784, "Acade": 8785, "film": 8786, "freezing": 8787, "hermit": 8788, "transfers": 8789, "generating": 8790, "Grad": 8791, "paperwork": 8792, "Spirit": 8793, "Dig": 8794, "advoc": 8795, "Weight": 8796, "welcoming": 8797, "sticks": 8798, "Shared": 8799, "purchased": 8800, "tifications": 8801, "========================================": 8802, "continuously": 8803, "aluminum": 8804, "Libr": 8805, "Connection": 8806, "publications": 8807, "sweaters": 8808, "accompany": 8809, "influenc": 8810, "Ideas": 8811, "aimed": 8812, "repeating": 8813, "liquids": 8814, "Impro": 8815, "teenager": 8816, "bellish": 8817, "wool": 8818, "vacc": 8819, "palms": 8820, "transferring": 8821, "accepted": 8822, "partnerships": 8823, "claims": 8824, "amina": 8825, "vulnerabilities": 8826, "avender": 8827, "Hygiene": 8828, "counselors": 8829, "tangible": 8830, "Mindfulness": 8831, "disrupt": 8832, "ratios": 8833, "notification": 8834, "Genuine": 8835, "attracting": 8836, "discrepan": 8837, "raised": 8838, "aquatic": 8839, "mathematics": 8840, "housing": 8841, "Reduce": 8842, "Parents": 8843, "toggle": 8844, "Quickly": 8845, "Shoes": 8846, "Investi": 8847, "blind": 8848, "clockwise": 8849, "flesh": 8850, "Individual": 8851, "incredibly": 8852, "laundry": 8853, "seminars": 8854, "grocery": 8855, "discoloration": 8856, "32": 8857, "Ans": 8858, "Ca": 8859, "DD": 8860, "Date": 8861, "EC": 8862, "El": 8863, "Event": 8864, "Full": 8865, "Gold": 8866, "Law": 8867, "Map": 8868, "Moun": 8869, "Rock": 8870, "Side": 8871, "Who": 8872, "Warm": 8873, "Yes": 8874, "_Step": 8875, "golf": 8876, "hunting": 8877, "knot": 8878, "lavender": 8879, "mask": 8880, "navy": 8881, "pile": 8882, "sink": 8883, "stomach": 8884, "ino": 8885, "ref": 8886, "eraser": 8887, "inges": 8888, "ension": 8889, "almon": 8890, "allies": 8891, "toon": 8892, "leaks": 8893, "static": 8894, "stamina": 8895, "secu": 8896, "separation": 8897, "coaches": 8898, "asana": 8899, "suns": 8900, "adversity": 8901, "apples": 8902, "unci": 8903, "unauthorized": 8904, "heights": 8905, "versus": 8906, "performed": 8907, "outwards": 8908, "plus": 8909, "oph": 8910, "Thought": 8911, "former": 8912, "grac": 8913, "Input": 8914, "Intern": 8915, "rails": 8916, "timelines": 8917, "warran": 8918, "disinfect": 8919, "finances": 8920, "evap": 8921, "Exfoli": 8922, "perimeter": 8923, "calories": 8924, "umns": 8925, "cursor": 8926, "backups": 8927, "backpack": 8928, "got": 8929, "counted": 8930, "ishment": 8931, "gene": 8932, "gencies": 8933, "connectivity": 8934, "openness": 8935, "Pose": 8936, "charging": 8937, "producing": 8938, "United": 8939, "testimon": 8940, "terminal": 8941, "pursue": 8942, "distingu": 8943, "nuances": 8944, "promotion": 8945, "drip": 8946, "freeze": 8947, "putes": 8948, "miles": 8949, "tutorials": 8950, "Compon": 8951, "Meeting": 8952, "directory": 8953, "insince": 8954, "datase": 8955, "Seal": 8956, "homepage": 8957, "informative": 8958, "cheer": 8959, "Sometimes": 8960, "sleepover": 8961, "striving": 8962, "Cleanse": 8963, "burgers": 8964, "spoon": 8965, "fluffy": 8966, "Arrive": 8967, "football": 8968, "intui": 8969, "effortlessly": 8970, "photography": 8971, "digits": 8972, "constructively": 8973, "shoe": 8974, "sibling": 8975, "authentication": 8976, "authentically": 8977, "Players": 8978, "grid": 8979, "accompan": 8980, "calculation": 8981, "norms": 8982, "clarification": 8983, "intelli": 8984, "Server": 8985, "emerge": 8986, "authorities": 8987, "Buying": 8988, "suggested": 8989, "Medical": 8990, "visitors": 8991, "Immedi": 8992, "assigned": 8993, "manufacturers": 8994, "--------------------------------------": 8995, "autonomy": 8996, "fireflies": 8997, "Values": 8998, "General": 8999, "---------------------------------------------": 9000, "inflation": 9001, "detect": 9002, "supplements": 9003, "Capture": 9004, "manipulation": 9005, "Factors": 9006, "Messenger": 9007, "mathematical": 9008, "crafted": 9009, "barriers": 9010, "flawless": 9011, "symmetry": 9012, "investig": 9013, "Breathing": 9014, "prepares": 9015, "stitute": 9016, "Multiple": 9017, "Kindness": 9018, "relatable": 9019, "reciproc": 9020, "industries": 9021, "Brainstorm": 9022, "Stir": 9023, "History": 9024, "agreed": 9025, "applicants": 9026, "disposable": 9027, "oxygen": 9028, "coconut": 9029, "Mobile": 9030, "Answ": 9031, ")^": 9032, "3DS": 9033, "99": 9034, "AB": 9035, "Aware": 9036, "Cy": 9037, "Case": 9038, "Fra": 9039, "Frequ": 9040, "Gain": 9041, "House": 9042, "Mi": 9043, "Qual": 9044, "ST": 9045, "Sam": 9046, "Scan": 9047, "Site": 9048, "Scru": 9049, "Sources": 9050, "Tik": 9051, "bate": 9052, "bill": 9053, "bending": 9054, "dough": 9055, "drink": 9056, "flights": 9057, "iors": 9058, "jun": 9059, "jam": 9060, "pir": 9061, "pens": 9062, "philo": 9063, "usive": 9064, "inputs": 9065, "reusable": 9066, "onds": 9067, "anxi": 9068, "tires": 9069, "estyle": 9070, "outing": 9071, "ords": 9072, "alpha": 9073, "teens": 9074, "ley": 9075, "leisure": 9076, "roy": 9077, "acer": 9078, "sim": 9079, "det": 9080, "dehydration": 9081, "liability": 9082, "aste": 9083, "assing": 9084, "econom": 9085, "abstract": 9086, "unders": 9087, "unpleasant": 9088, "lining": 9089, "femin": 9090, "outlines": 9091, "trap": 9092, "som": 9093, "nels": 9094, "spiders": 9095, "cancel": 9096, "strand": 9097, "minate": 9098, "elong": 9099, "Construct": 9100, "ouses": 9101, "parame": 9102, "ppers": 9103, "distilled": 9104, "Exper": 9105, "curve": 9106, "manager": 9107, "sample": 9108, "closet": 9109, "Tok": 9110, "Tom": 9111, "waterproof": 9112, "practition": 9113, "senses": 9114, "Plant": 9115, "subtly": 9116, "attentiveness": 9117, "grown": 9118, "balm": 9119, "balances": 9120, "dryness": 9121, "vigor": 9122, "menus": 9123, "offerings": 9124, "intend": 9125, "focuses": 9126, "doneness": 9127, "adjustment": 9128, "adjustable": 9129, "articulate": 9130, "hormon": 9131, "customized": 9132, "freshly": 9133, "lucent": 9134, "Well": 9135, "instrument": 9136, "secured": 9137, "breathable": 9138, "locker": 9139, "maximizing": 9140, "halves": 9141, "Does": 9142, "slider": 9143, "swab": 9144, "deliber": 9145, "graphical": 9146, "integral": 9147, "employer": 9148, "polite": 9149, "finalizing": 9150, "directed": 9151, "antioxid": 9152, "150": 9153, "happen": 9154, "diligent": 9155, "Runec": 9156, "screwdriver": 9157, "scratches": 9158, "descriptive": 9159, "shelters": 9160, "occasional": 9161, "drama": 9162, "fixed": 9163, "golden": 9164, "sugars": 9165, "negotiate": 9166, "sensations": 9167, "sealed": 9168, "Websites": 9169, "Exercis": 9170, "interventions": 9171, "evolve": 9172, "piercing": 9173, "tangling": 9174, "Elements": 9175, "smartphone": 9176, "smartphones": 9177, "smells": 9178, "Button": 9179, "elbows": 9180, "vascular": 9181, "landscapes": 9182, "databases": 9183, "advertise": 9184, "aquari": 9185, "tower": 9186, "blemishes": 9187, "Therapy": 9188, "exceptional": 9189, "shield": 9190, "accommodations": 9191, "calendar": 9192, "narrative": 9193, "necessit": 9194, "Gratitude": 9195, "ville": 9196, "musicians": 9197, "merchandise": 9198, "cheekbones": 9199, "Achieve": 9200, "silicone": 9201, "discrepancies": 9202, "TikTok": 9203, "Ag": 9204, "Bri": 9205, "Cand": 9206, "Eating": 9207, "Euro": 9208, "Four": 9209, "Fast": 9210, "Fix": 9211, "Folder": 9212, "Ii": 9213, "Loo": 9214, "Nur": 9215, "Night": 9216, "PA": 9217, "Pain": 9218, "Rub": 9219, "RAM": 9220, "Si": 9221, "Stra": 9222, "Tal": 9223, "War": 9224, "blocking": 9225, "dab": 9226, "dining": 9227, "frac": 9228, "hollow": 9229, "itions": 9230, "kits": 9231, "lens": 9232, "mats": 9233, "nest": 9234, "nice": 9235, "nia": 9236, "ske": 9237, "vintage": 9238, "xy": 9239, "yl": 9240, "za": 9241, "zo": 9242, "tied": 9243, "toe": 9244, "tos": 9245, "stap": 9246, "stations": 9247, "sealing": 9248, "cozy": 9249, "lox": 9250, "loans": 9251, "proposed": 9252, "ada": 9253, "adil": 9254, "ripe": 9255, "dill": 9256, "uris": 9257, "mentor": 9258, "exacer": 9259, "pots": 9260, "fetch": 9261, "perception": 9262, "sophy": 9263, "spi": 9264, "spark": 9265, "teness": 9266, "creases": 9267, "Reinfor": 9268, "Thin": 9269, "Conversely": 9270, "Info": 9271, "cords": 9272, "dos": 9273, "licenses": 9274, "dismis": 9275, "disappointment": 9276, "disputes": 9277, "engines": 9278, "helor": 9279, "Chin": 9280, "Chec": 9281, "privi": 9282, "backyard": 9283, "singing": 9284, "complements": 9285, "shipping": 9286, "flatter": 9287, "bugs": 9288, "rectangles": 9289, "dividing": 9290, "ggers": 9291, "improper": 9292, "gible": 9293, "charcoal": 9294, "medicine": 9295, "template": 9296, "nerve": 9297, "booking": 9298, "carbon": 9299, "Accounts": 9300, "thereby": 9301, "Preview": 9302, "caught": 9303, "released": 9304, "Second": 9305, "transaction": 9306, "Resist": 9307, "juven": 9308, "climbing": 9309, "smoking": 9310, "Grace": 9311, "Ground": 9312, "begins": 9313, "ordinary": 9314, "Neutral": 9315, "Upload": 9316, "reviewing": 9317, "lux": 9318, "simpler": 9319, "traces": 9320, "footage": 9321, "matched": 9322, "slice": 9323, "Properties": 9324, "exposing": 9325, "Material": 9326, "reinforcing": 9327, "integrating": 9328, "distract": 9329, "Boy": 9330, "calling": 9331, "cardboard": 9332, "Purpose": 9333, "discovering": 9334, "resistant": 9335, "belly": 9336, "Role": 9337, "rotate": 9338, "sandpaper": 9339, "threatening": 9340, "Website": 9341, "vulnerable": 9342, "sellers": 9343, "counselor": 9344, "Model": 9345, "Harry": 9346, "smell": 9347, "collar": 9348, "Phan": 9349, "arrival": 9350, "diplo": 9351, "Switch": 9352, "thriving": 9353, "alternate": 9354, "decreased": 9355, "crafts": 9356, "tucked": 9357, "squeeze": 9358, "polyester": 9359, "teaspoon": 9360, "shooting": 9361, "Shadow": 9362, "Single": 9363, "neighb": 9364, "vampire": 9365, "Essential": 9366, "Tooth": 9367, "seasons": 9368, "immune": 9369, "nodding": 9370, "stereotypes": 9371, "contracts": 9372, "magazines": 9373, "Roblox": 9374, "acquaint": 9375, "influencers": 9376, "insincere": 9377, "Frame": 9378, "Scrub": 9379, "parameters": 9380, "\").": 9381, "')": 9382, "3D": 9383, "55": 9384, "Agree": 9385, "Br": 9386, "BMI": 9387, "CBT": 9388, "Equ": 9389, "Lift": 9390, "Mary": 9391, "Mass": 9392, "Max": 9393, "Offic": 9394, "Pow": 9395, "Port": 9396, "Pray": 9397, "Ruler": 9398, "Task": 9399, "UI": 9400, "bass": 9401, "cings": 9402, "cakes": 9403, "eBay": 9404, "jus": 9405, "miti": 9406, "spl": 9407, "sne": 9408, "senti": 9409, "uous": 9410, "resemble": 9411, "revenue": 9412, "reporting": 9413, "thon": 9414, "thors": 9415, "tell": 9416, "ander": 9417, "aro": 9418, "ros": 9419, "acing": 9420, "sia": 9421, "depar": 9422, "itar": 9423, "chats": 9424, "icates": 9425, "conser": 9426, "absolu": 9427, "additions": 9428, "adoption": 9429, "unge": 9430, "verted": 9431, "mentals": 9432, "mol": 9433, "ays": 9434, "peroxide": 9435, "nets": 9436, "spatula": 9437, "Keyboard": 9438, "ounded": 9439, "compl": 9440, "agency": 9441, "predic": 9442, "grab": 9443, "Conce": 9444, "Configure": 9445, "boarding": 9446, "Insurance": 9447, "correspon": 9448, "warri": 9449, "Beat": 9450, "monia": 9451, "hens": 9452, "playtime": 9453, "Enroll": 9454, "hotel": 9455, "columns": 9456, "closure": 9457, "flame": 9458, "bucket": 9459, "handles": 9460, "brevi": 9461, "smile": 9462, "addle": 9463, "reads": 9464, "Pos": 9465, "charts": 9466, "blings": 9467, "blame": 9468, "blades": 9469, "cars": 9470, "purple": 9471, "Prefer": 9472, "awk": 9473, "capac": 9474, "centrate": 9475, "protects": 9476, "changed": 9477, "hero": 9478, "rising": 9479, "wrapping": 9480, "transforming": 9481, "discussed": 9482, "optimization": 9483, "cycles": 9484, "beginner": 9485, "measurable": 9486, "sletters": 9487, "guiding": 9488, "storming": 9489, "Spin": 9490, "Despite": 9491, "equivalent": 9492, "burns": 9493, "textbooks": 9494, "lighthe": 9495, "tablets": 9496, "holders": 9497, "intact": 9498, "breakfast": 9499, "bonuses": 9500, "consultation": 9501, "Planning": 9502, "integrated": 9503, "USP": 9504, "periodic": 9505, "eligible": 9506, "reassurance": 9507, "investments": 9508, "north": 9509, "attaching": 9510, "masterpiece": 9511, "seasonings": 9512, "PSP": 9513, "Balanced": 9514, "Documents": 9515, "alerts": 9516, "examination": 9517, "independent": 9518, "registry": 9519, "respectively": 9520, "verifying": 9521, "tuna": 9522, "radio": 9523, "III": 9524, "Strengthen": 9525, "Boost": 9526, "bankruptcy": 9527, "harmonious": 9528, "catering": 9529, "versial": 9530, "flags": 9531, "prospects": 9532, "developer": 9533, "lungs": 9534, "literature": 9535, "quadratic": 9536, "embellish": 9537, "prayer": 9538, "escalate": 9539, "stuffed": 9540, "Eraser": 9541, "crisp": 9542, "ISO": 9543, "tongue": 9544, "trauma": 9545, "subscription": 9546, "cooperation": 9547, "Writing": 9548, "abetes": 9549, "vigilant": 9550, "conclusions": 9551, "announcements": 9552, "Movie": 9553, "Intelligence": 9554, "scoring": 9555, "inevitable": 9556, "instincts": 9557, "referrals": 9558, "Korean": 9559, "International": 9560, "accompanied": 9561, "anxious": 9562, "Runecrafting": 9563, "))": 9564, "21": 9565, "48": 9566, "Card": 9567, "Catch": 9568, "DA": 9569, "Dance": 9570, "Fle": 9571, "Flo": 9572, "Foods": 9573, "Groom": 9574, "LS": 9575, "Mer": 9576, "Mental": 9577, "Pal": 9578, "Shi": 9579, "bons": 9580, "fake": 9581, "gam": 9582, "haling": 9583, "juris": 9584, "lon": 9585, "rab": 9586, "sought": 9587, "vous": 9588, "waters": 9589, "revi": 9590, "recycling": 9591, "onions": 9592, "tising": 9593, "tiously": 9594, "esting": 9595, "oufl": 9596, "outings": 9597, "orizing": 9598, "alties": 9599, "aloud": 9600, "todd": 9601, "leak": 9602, "ardi": 9603, "arted": 9604, "stats": 9605, "rod": 9606, "cot": 9607, "asks": 9608, "loving": 9609, "wires": 9610, "consecu": 9611, "edom": 9612, "bear": 9613, "unity": 9614, "unfore": 9615, "unavailable": 9616, "dient": 9617, "urge": 9618, "urgency": 9619, "perhaps": 9620, "trapped": 9621, "troubleshooting": 9622, "quart": 9623, "therape": 9624, "creasing": 9625, "agrap": 9626, "Reas": 9627, "ctro": 9628, "Thank": 9629, "avatar": 9630, "bore": 9631, "bodi": 9632, "rail": 9633, "timeless": 9634, "contacting": 9635, "disk": 9636, "Behavi": 9637, "Excess": 9638, "Excessive": 9639, "specify": 9640, "relatively": 9641, "named": 9642, "manic": 9643, "newsletters": 9644, "samp": 9645, "said": 9646, "downtime": 9647, "bush": 9648, "bric": 9649, "Defin": 9650, "firing": 9651, "fortun": 9652, "thanks": 9653, "divisible": 9654, "archite": 9655, "sidebar": 9656, "airport": 9657, "sick": 9658, "templates": 9659, "blank": 9660, "Creative": 9661, "Acces": 9662, "clearing": 9663, "Solid": 9664, "factory": 9665, "stuck": 9666, "Discover": 9667, "tutoring": 9668, "gues": 9669, "Assign": 9670, "Assist": 9671, "fficiently": 9672, "transmit": 9673, "Trash": 9674, "grammar": 9675, "cheduled": 9676, "combines": 9677, "specialize": 9678, "concerts": 9679, "pane": 9680, "microwave": 9681, "collecting": 9682, "sincere": 9683, "embarr": 9684, "assessments": 9685, "losses": 9686, "Experiences": 9687, "Deci": 9688, "crop": 9689, "mutually": 9690, "Higher": 9691, "Box": 9692, "Lock": 9693, "folded": 9694, "meetups": 9695, "truth": 9696, "observed": 9697, "emergencies": 9698, "Empty": 9699, "Submerge": 9700, "artist": 9701, "PSI": 9702, "assignment": 9703, "recipe": 9704, "trainer": 9705, "answering": 9706, "anticip": 9707, "thicker": 9708, "credited": 9709, "compassionate": 9710, "-------------------------------------------": 9711, "technologies": 9712, "Strategy": 9713, "jacket": 9714, "Finalize": 9715, "struggling": 9716, "tune": 9717, "disturbing": 9718, "beside": 9719, "counseling": 9720, "Books": 9721, "Trade": 9722, "ambiance": 9723, "decline": 9724, "suspicious": 9725, "Photoshop": 9726, "altering": 9727, "Copy": 9728, "Magic": 9729, "Integrate": 9730, "Situation": 9731, "bolts": 9732, "fragile": 9733, "Bluetooth": 9734, "recently": 9735, "Hydrated": 9736, "Volunteer": 9737, "swiftly": 9738, "ECG": 9739, "Immediately": 9740, "Awareness": 9741, "Reinforce": 9742, "Phantom": 9743, "unforeseen": 9744, "agraph": 9745, ".*": 9746, "36": 9747, "Cu": 9748, "Cri": 9749, "Cast": 9750, "Dat": 9751, "Dim": 9752, "Emer": 9753, "Gaining": 9754, "Irish": 9755, "Lit": 9756, "Live": 9757, "Lines": 9758, "Nor": 9759, "OT": 9760, "Oc": 9761, "Oper": 9762, "PN": 9763, "Py": 9764, "Ports": 9765, "Sort": 9766, "Simply": 9767, "Tab": 9768, "Town": 9769, "VT": 9770, "bum": 9771, "dan": 9772, "greg": 9773, "hatching": 9774, "laces": 9775, "mone": 9776, "nas": 9777, "oke": 9778, "otic": 9779, "ply": 9780, "pliers": 9781, "route": 9782, "slot": 9783, "scheduled": 9784, "yam": 9785, "infec": 9786, "insufficient": 9787, "inherent": 9788, "reacting": 9789, "rehear": 9790, "rejuven": 9791, "thand": 9792, "arter": 9793, "youth": 9794, "stack": 9795, "staining": 9796, "rose": 9797, "siblings": 9798, "defeat": 9799, "chur": 9800, "coil": 9801, "icons": 9802, "mpoo": 9803, "resto": 9804, "diabetes": 9805, "shock": 9806, "exu": 9807, "exce": 9808, "modest": 9809, "poss": 9810, "persu": 9811, "spills": 9812, "strap": 9813, "prene": 9814, "elabor": 9815, "nothing": 9816, "dot": 9817, "discounts": 9818, "Export": 9819, "bleeding": 9820, "skate": 9821, "hibit": 9822, "relatives": 9823, "steel": 9824, "requisites": 9825, "intermedi": 9826, "inclusivity": 9827, "electro": 9828, "workers": 9829, "flour": 9830, "varied": 9831, "Deliver": 9832, "frizz": 9833, "suppress": 9834, "understands": 9835, "expiration": 9836, "scents": 9837, "invitation": 9838, "addiction": 9839, "Wire": 9840, "fund": 9841, "reduction": 9842, "balancing": 9843, "header": 9844, "developments": 9845, "Anti": 9846, "countries": 9847, "Register": 9848, "requirement": 9849, "accessory": 9850, "Meet": 9851, "eyewear": 9852, "systematically": 9853, "characterized": 9854, "intentional": 9855, "multiply": 9856, "drastic": 9857, "runch": 9858, "garment": 9859, "approachable": 9860, "toned": 9861, "graphite": 9862, "Familiar": 9863, "lumber": 9864, "lugg": 9865, "overe": 9866, "Allowing": 9867, "burger": 9868, "brid": 9869, "Around": 9870, "shortcuts": 9871, "humility": 9872, "humans": 9873, "Doll": 9874, "initiative": 9875, "breakup": 9876, "Works": 9877, "Living": 9878, "measured": 9879, "dresses": 9880, "Author": 9881, "Audio": 9882, "creatively": 9883, "tighten": 9884, "encountered": 9885, "forcefully": 9886, "urities": 9887, "familiarity": 9888, "celebrity": 9889, "stimuli": 9890, "ingredient": 9891, "framework": 9892, "Workspace": 9893, "pests": 9894, "scales": 9895, "rinkle": 9896, "scraper": 9897, "speakers": 9898, "wallpaper": 9899, "appliances": 9900, "insects": 9901, "attraction": 9902, "concisely": 9903, "certificates": 9904, "transitioning": 9905, "vacation": 9906, "fixes": 9907, "converting": 9908, "Protective": 9909, "damages": 9910, "equation": 9911, "Diffic": 9912, "Levels": 9913, "competing": 9914, "competen": 9915, "Emotions": 9916, "tifying": 9917, "copyright": 9918, "sensation": 9919, "switching": 9920, "entertaining": 9921, "coordinate": 9922, "180": 9923, "contractor": 9924, "launching": 9925, "fundamentals": 9926, "affordability": 9927, "modifying": 9928, "tablespoons": 9929, "laptop": 9930, "Veget": 9931, "Salt": 9932, "Everyone": 9933, "worrying": 9934, "paired": 9935, "developers": 9936, "suscep": 9937, "Shampoo": 9938, "Challeng": 9939, "licensing": 9940, "alternating": 9941, "barrier": 9942, "confrontational": 9943, "Slide": 9944, "deposits": 9945, "tomatoes": 9946, "pillows": 9947, "cuticle": 9948, "endorph": 9949, "Comfortable": 9950, "Include": 9951, "saturated": 9952, "HDMI": 9953, "kicking": 9954, "leftover": 9955, "hashtags": 9956, "thighs": 9957, "stabili": 9958, "Classic": 9959, "receptive": 9960, "thermometer": 9961, "scientific": 9962, "compensation": 9963, "Thoughts": 9964, "Library": 9965, "Investigate": 9966, "inoa": 9967, "almond": 9968, "testimonials": 9969, "intelligent": 9970, "vigorously": 9971, "privile": 9972, "awkward": 9973, "lighthearted": 9974, "ouflage": 9975, "therapeutic": 9976, "Difficulty": 9977, "-,": 9978, "<!": 9979, "Cat": 9980, "Cli": 9981, "Cred": 9982, "GB": 9983, "Gent": 9984, "Gas": 9985, "Hang": 9986, "Ij": 9987, "Jama": 9988, "LPS": 9989, "PG": 9990, "Por": 9991, "Sch": 9992, "TS": 9993, "VC": 9994, "Want": 9995, "Wrap": 9996, "bage": 9997, "craw": 9998, "dor": 9999, "emul": 10000, "ficial": 10001, "glitter": 10002, "ives": 10003, "kil": 10004, "lings": 10005, "lenses": 10006, "nav": 10007, "oz": 10008, "satin": 10009, "sthand": 10010, "vor": 10011, "wants": 10012, "ret": 10013, "reality": 10014, "thaw": 10015, "anks": 10016, "esity": 10017, "encompass": 10018, "orted": 10019, "tood": 10020, "rolled": 10021, "deed": 10022, "declutter": 10023, "lyrics": 10024, "coating": 10025, "loan": 10026, "wiping": 10027, "prop": 10028, "congreg": 10029, "abdomin": 10030, "adoles": 10031, "undisturbed": 10032, "exposes": 10033, "expecting": 10034, "olding": 10035, "linen": 10036, "liners": 10037, "usability": 10038, "outcome": 10039, "uty": 10040, "span": 10041, "iff": 10042, "Keys": 10043, "strangers": 10044, "ags": 10045, "appeti": 10046, "Thus": 10047, "gra": 10048, "Contain": 10049, "raid": 10050, "licity": 10051, "contests": 10052, "disable": 10053, "discounted": 10054, "authors": 10055, "eval": 10056, "evolution": 10057, "regulate": 10058, "undertones": 10059, "obed": 10060, "planks": 10061, "States": 10062, "sett": 10063, "playstyle": 10064, "Ener": 10065, "impurities": 10066, "hosted": 10067, "managers": 10068, "signed": 10069, "newer": 10070, "maintained": 10071, "safer": 10072, "colder": 10073, "restart": 10074, "bud": 10075, "bug": 10076, "pony": 10077, "Tool": 10078, "firsthand": 10079, "ailing": 10080, "rectangular": 10081, "versal": 10082, "smiling": 10083, "sister": 10084, "charged": 10085, "pointed": 10086, "trait": 10087, "stylist": 10088, "headings": 10089, "empath": 10090, "rint": 10091, "cautiously": 10092, "wheat": 10093, "Compati": 10094, "trimming": 10095, "Mechan": 10096, "socialization": 10097, "societal": 10098, "reached": 10099, "translucent": 10100, "generic": 10101, "generations": 10102, "smoke": 10103, "stiff": 10104, "drawer": 10105, "leaning": 10106, "garage": 10107, "Development": 10108, "framing": 10109, "Attention": 10110, "Weather": 10111, "Office": 10112, "negativity": 10113, "problematic": 10114, "tification": 10115, "streaming": 10116, "slices": 10117, "Payment": 10118, "consultations": 10119, "Player": 10120, "aneous": 10121, "Connections": 10122, "kindly": 10123, "afraid": 10124, "sunglasses": 10125, "armadil": 10126, "trend": 10127, "analytics": 10128, "documentaries": 10129, "Interact": 10130, "happens": 10131, "candies": 10132, "bulb": 10133, "implement": 10134, "Symptoms": 10135, "Navigating": 10136, "restrict": 10137, "potting": 10138, "fingertips": 10139, "50s": 10140, "curious": 10141, "woman": 10142, "Networking": 10143, "taxes": 10144, "AirDrop": 10145, "Carry": 10146, "Treatment": 10147, "-----------------------------------------------": 10148, "television": 10149, "Canada": 10150, "melt": 10151, "melon": 10152, "ribbons": 10153, "piercings": 10154, "belonging": 10155, "chinis": 10156, "Groups": 10157, "birthday": 10158, "governing": 10159, "peppers": 10160, "bristled": 10161, "Vehic": 10162, "arranging": 10163, "endeavor": 10164, "mirrors": 10165, "summarize": 10166, "Filter": 10167, "recordings": 10168, "jargon": 10169, "holiday": 10170, "transparent": 10171, "333": 10172, "Transition": 10173, "Conversations": 10174, "Eligibility": 10175, "Garage": 10176, "scholarships": 10177, "Stretch": 10178, "currency": 10179, "enforcement": 10180, "succeed": 10181, "Various": 10182, "tolerance": 10183, "restaurants": 10184, "Achieving": 10185, "ucchinis": 10186, "Galax": 10187, "coordinating": 10188, "Aquari": 10189, "Traditional": 10190, "Gradual": 10191, "understood": 10192, "antioxidants": 10193, "exacerbate": 10194, "Checking": 10195, "acquaintances": 10196, "toddler": 10197, "samples": 10198, "Areas": 10199, "Batt": 10200, "BFS": 10201, "Cance": 10202, "Corn": 10203, "Cache": 10204, "DE": 10205, "Ets": 10206, "Fortun": 10207, "IC": 10208, "IF": 10209, "Ice": 10210, "King": 10211, "Ken": 10212, "Lighting": 10213, "Mist": 10214, "Path": 10215, "Rules": 10216, "Sus": 10217, "Stop": 10218, "Smi": 10219, "Simple": 10220, "Zip": 10221, "asive": 10222, "aired": 10223, "batter": 10224, "gine": 10225, "ig": 10226, "ku": 10227, "lands": 10228, "mous": 10229, "nick": 10230, "ok": 10231, "pit": 10232, "south": 10233, "vom": 10234, "wings": 10235, "intru": 10236, "indoors": 10237, "resembling": 10238, "thir": 10239, "ano": 10240, "erase": 10241, "alph": 10242, "ande": 10243, "rots": 10244, "sies": 10245, "lik": 10246, "entre": 10247, "coaching": 10248, "assume": 10249, "mere": 10250, "metab": 10251, "logo": 10252, "loween": 10253, "abbrevi": 10254, "edition": 10255, "unused": 10256, "sha": 10257, "arer": 10258, "#####": 10259, "trace": 10260, "trades": 10261, "spir": 10262, "spont": 10263, "opposing": 10264, "compound": 10265, "compressed": 10266, "upfront": 10267, "uplift": 10268, "precious": 10269, "Convert": 10270, "Into": 10271, "Inspect": 10272, "worms": 10273, "ffs": 10274, "noises": 10275, "parking": 10276, "cleans": 10277, "fines": 10278, "peer": 10279, "Expressing": 10280, "Coat": 10281, "encry": 10282, "planting": 10283, "curd": 10284, "curly": 10285, "curtains": 10286, "betta": 10287, "Status": 10288, "Them": 10289, "surprise": 10290, "backed": 10291, "Altern": 10292, "playful": 10293, "assment": 10294, "locally": 10295, "newfound": 10296, "Problem": 10297, "aked": 10298, "column": 10299, "pond": 10300, "county": 10301, "profits": 10302, "divide": 10303, "airline": 10304, "readiness": 10305, "marine": 10306, "responsive": 10307, "nervous": 10308, "patiently": 10309, "Practical": 10310, "triangles": 10311, "guing": 10312, "webin": 10313, "webpage": 10314, "pix": 10315, "Commit": 10316, "circu": 10317, "severity": 10318, "Reset": 10319, "juices": 10320, "continues": 10321, "feeds": 10322, "Finder": 10323, "denim": 10324, "painted": 10325, "cracks": 10326, "salads": 10327, "beds": 10328, "Weigh": 10329, "engagements": 10330, "exists": 10331, "ankle": 10332, "lifies": 10333, "layouts": 10334, "satisfying": 10335, "kilo": 10336, "swing": 10337, "Breaking": 10338, "Breathe": 10339, "imagine": 10340, "Gathering": 10341, "proud": 10342, "Decl": 10343, "Colors": 10344, "marker": 10345, "Perspec": 10346, "avored": 10347, "analytical": 10348, "pasta": 10349, "attachments": 10350, "squash": 10351, "protectant": 10352, "travels": 10353, "sticky": 10354, "twists": 10355, "Letter": 10356, "roller": 10357, "guardi": 10358, "Editor": 10359, "diagr": 10360, "conveying": 10361, "Completely": 10362, "belt": 10363, "girlfriend": 10364, "compliment": 10365, "attractions": 10366, "scope": 10367, "crown": 10368, "negotiation": 10369, "penalties": 10370, "buyers": 10371, "Continuous": 10372, "fairness": 10373, "opponent": 10374, "Equip": 10375, "infest": 10376, "decay": 10377, "metrical": 10378, "drainage": 10379, "suspension": 10380, "Summary": 10381, "Counter": 10382, "freedom": 10383, "Estimate": 10384, "Halloween": 10385, "Paste": 10386, "brackets": 10387, "gallons": 10388, "=============================================": 10389, "Circle": 10390, "houses": 10391, "Conversation": 10392, "administrative": 10393, "aerob": 10394, "electricity": 10395, "twee": 10396, "Recommend": 10397, "instantly": 10398, "Stock": 10399, "Nike": 10400, "Glass": 10401, "Execute": 10402, "defeating": 10403, "calorie": 10404, "Vacuum": 10405, "global": 10406, "department": 10407, "adhesion": 10408, "Plug": 10409, "prenup": 10410, "strictly": 10411, "cushion": 10412, "Digital": 10413, "sunscreen": 10414, "graciously": 10415, "Nurture": 10416, "sneak": 10417, "Possible": 10418, "boredom": 10419, "endorphins": 10420, "GarageBand": 10421, "Etsy": 10422, ")\\": 10423, "Baby": 10424, "Cam": 10425, "Camp": 10426, "Deck": 10427, "Doc": 10428, "Drain": 10429, "Duration": 10430, "DVT": 10431, "Fas": 10432, "Gir": 10433, "Great": 10434, "Hon": 10435, "Hub": 10436, "Icon": 10437, "Ill": 10438, "Lau": 10439, "MT": 10440, "Ome": 10441, "Psy": 10442, "Row": 10443, "SI": 10444, "Shel": 10445, "Tod": 10446, "Wall": 10447, "Wel": 10448, "WBFS": 10449, "\\(": 10450, "ament": 10451, "awards": 10452, "bally": 10453, "cure": 10454, "citations": 10455, "fts": 10456, "gori": 10457, "glit": 10458, "hence": 10459, "hue": 10460, "kid": 10461, "lor": 10462, "national": 10463, "pour": 10464, "pear": 10465, "plot": 10466, "sket": 10467, "tut": 10468, "west": 10469, "represented": 10470, "anas": 10471, "ename": 10472, "altar": 10473, "youn": 10474, "stairs": 10475, "acrylic": 10476, "accredited": 10477, "sights": 10478, "devi": 10479, "detangling": 10480, "seated": 10481, "semi": 10482, "itating": 10483, "cham": 10484, "chains": 10485, "chapter": 10486, "asleep": 10487, "fork": 10488, "forces": 10489, "loaf": 10490, "proportion": 10491, "ghet": 10492, "mping": 10493, "adverse": 10494, "resorting": 10495, "bean": 10496, "beverages": 10497, "unforget": 10498, "heel": 10499, "hears": 10500, "diets": 10501, "shut": 10502, "exchanges": 10503, "exceed": 10504, "pole": 10505, "poison": 10506, "outlets": 10507, "illegal": 10508, "pling": 10509, "quinoa": 10510, "lowering": 10511, "tices": 10512, "tensions": 10513, "tenden": 10514, "mine": 10515, "mining": 10516, "mineral": 10517, "prey": 10518, "gravity": 10519, "boil": 10520, "foreign": 10521, "overlap": 10522, "clues": 10523, "dotes": 10524, "rugs": 10525, "clearer": 10526, "angs": 10527, "register": 10528, "customs": 10529, "monsters": 10530, "indent": 10531, "interse": 10532, "iqueness": 10533, "implications": 10534, "Proof": 10535, "Project": 10536, "downloaded": 10537, "cubes": 10538, "whichever": 10539, "notable": 10540, "breathe": 10541, "airtight": 10542, "personalities": 10543, "Unique": 10544, "daytime": 10545, "venues": 10546, "Shir": 10547, "logist": 10548, "drill": 10549, "millions": 10550, "spell": 10551, "Asking": 10552, "eyelids": 10553, "pigment": 10554, "objectively": 10555, "writer": 10556, "ricul": 10557, "optimism": 10558, "cyber": 10559, "feeder": 10560, "routers": 10561, "ginger": 10562, "deepens": 10563, "glam": 10564, "collections": 10565, "reflective": 10566, "Leg": 10567, "Legal": 10568, "ultaneously": 10569, "burden": 10570, "filler": 10571, "shortcut": 10572, "washed": 10573, "puzzle": 10574, "animation": 10575, "bonus": 10576, "Accessing": 10577, "printing": 10578, "sembles": 10579, "inspiring": 10580, "Playing": 10581, "bitter": 10582, "flowing": 10583, "publication": 10584, "sung": 10585, "folding": 10586, "removable": 10587, "believ": 10588, "hiccups": 10589, "celebrating": 10590, "triggering": 10591, "Department": 10592, "cameras": 10593, "sniper": 10594, "noticed": 10595, "Combining": 10596, "microphone": 10597, "IPO": 10598, "Simultaneously": 10599, "machines": 10600, "draft": 10601, "dramatic": 10602, "Layering": 10603, "respecting": 10604, "phrase": 10605, "crowded": 10606, "accumulated": 10607, "passionate": 10608, "illusion": 10609, "ranking": 10610, "retainer": 10611, "ficing": 10612, "thumbnail": 10613, "Lightly": 10614, "vitamin": 10615, "resolving": 10616, "titudes": 10617, "advancements": 10618, "scarf": 10619, "repairs": 10620, "refined": 10621, "Reddit": 10622, "diagnostic": 10623, "progressively": 10624, "Message": 10625, "throwing": 10626, "permanently": 10627, "exploit": 10628, "loops": 10629, "physici": 10630, "aphrag": 10631, "published": 10632, "ridges": 10633, "describe": 10634, "API": 10635, "bubble": 10636, "Lips": 10637, "incidents": 10638, "cuticles": 10639, "smudging": 10640, "Objectives": 10641, "survival": 10642, "Decorate": 10643, "Construction": 10644, "cardiovascular": 10645, "ancially": 10646, "Texture": 10647, "insulation": 10648, "automated": 10649, "doubt": 10650, "repetitions": 10651, "sacrificing": 10652, "frustrating": 10653, "neglect": 10654, "diamonds": 10655, "statistics": 10656, "aphrase": 10657, "unciation": 10658, "piratory": 10659, "philosophy": 10660, "feminine": 10661, "Straight": 10662, "Powder": 10663, "Flexi": 10664, "jurisdiction": 10665, "Accessibility": 10666, "Decision": 10667, "Challenges": 10668, "Gentle": 10669, "Galaxy": 10670, "entreprene": 10671, "webinars": 10672, "gorith": 10673, "ghetti": 10674, "unforgettable": 10675, "tendencies": 10676, "()": 10677, "300": 10678, "400": 10679, "900": 10680, "9Ij": 10681, "Bad": 10682, "Bend": 10683, "Cold": 10684, "Dish": 10685, "HP": 10686, "Honesty": 10687, "Mild": 10688, "Mining": 10689, "Num": 10690, "ON": 10691, "Oil": 10692, "Pup": 10693, "Pair": 10694, "Push": 10695, "Rich": 10696, "ROM": 10697, "Steam": 10698, "Sonic": 10699, "Tax": 10700, "Testing": 10701, "Wipe": 10702, "bli": 10703, "cs": 10704, "dull": 10705, "eager": 10706, "fant": 10707, "fade": 10708, "gates": 10709, "hack": 10710, "hangers": 10711, "ja": 10712, "kg": 10713, "lamps": 10714, "nine": 10715, "naming": 10716, "sq": 10717, "sounding": 10718, "vard": 10719, "wound": 10720, "reside": 10721, "ero": 10722, "ert": 10723, "estimate": 10724, "alous": 10725, "algorith": 10726, "themed": 10727, "arse": 10728, "attered": 10729, "attainable": 10730, "accus": 10731, "delight": 10732, "deodor": 10733, "liable": 10734, "vegg": 10735, "coils": 10736, "melo": 10737, "proven": 10738, "promising": 10739, "promises": 10740, "conserve": 10741, "gho": 10742, "gem": 10743, "geoc": 10744, "geometric": 10745, "vivid": 10746, "dimin": 10747, "shake": 10748, "shiny": 10749, "oline": 10750, "aying": 10751, "pockets": 10752, "outdoors": 10753, "plum": 10754, "combo": 10755, "creators": 10756, "idot": 10757, "compress": 10758, "upgrades": 10759, "preview": 10760, "grates": 10761, "grading": 10762, "Concer": 10763, "ousers": 10764, "paragraph": 10765, "licated": 10766, "actually": 10767, "discar": 10768, "discourage": 10769, "dismissing": 10770, "aux": 10771, "tivals": 10772, "served": 10773, "races": 10774, "hypno": 10775, "Admini": 10776, "Story": 10777, "pressed": 10778, "playlists": 10779, "Encour": 10780, "Enabling": 10781, "fier": 10782, "somewhere": 10783, "signifies": 10784, "aku": 10785, "odds": 10786, "profound": 10787, "highest": 10788, "aircraft": 10789, "produced": 10790, "portable": 10791, "submer": 10792, "bladder": 10793, "hairspray": 10794, "Preheat": 10795, "cade": 10796, "afterward": 10797, "Soap": 10798, "films": 10799, "fillets": 10800, "Modify": 10801, "driven": 10802, "protected": 10803, "Competi": 10804, "tries": 10805, "guarding": 10806, "Memor": 10807, "checkups": 10808, "controversial": 10809, "donation": 10810, "harder": 10811, "generously": 10812, "lays": 10813, "legally": 10814, "draining": 10815, "Sell": 10816, "Contacts": 10817, "Someone": 10818, "stopping": 10819, "Notifications": 10820, "horn": 10821, "stressors": 10822, "density": 10823, "resid": 10824, "salad": 10825, "Diam": 10826, "Diag": 10827, "existence": 10828, "street": 10829, "Teen": 10830, "simplicity": 10831, "tracting": 10832, "operate": 10833, "Openly": 10834, "inspires": 10835, "Order": 10836, "integrate": 10837, "adapter": 10838, "Board": 10839, "hydrating": 10840, "downloads": 10841, "weaken": 10842, "calmness": 10843, "summary": 10844, "favorites": 10845, "conventional": 10846, "zzes": 10847, "suggests": 10848, "internships": 10849, "Medium": 10850, "mandatory": 10851, "Organizing": 10852, "Safely": 10853, "mastered": 10854, "anticipate": 10855, "certificate": 10856, "Controls": 10857, "pale": 10858, "palm": 10859, "negotiating": 10860, "fatty": 10861, "Wheel": 10862, "arrangement": 10863, "habitats": 10864, "advancement": 10865, "============================================================": 10866, "sorting": 10867, "Restart": 10868, "trays": 10869, "Educate": 10870, "versities": 10871, "symbol": 10872, "Function": 10873, "scanning": 10874, "Factor": 10875, "waistline": 10876, "pacing": 10877, "carrier": 10878, "potato": 10879, "institution": 10880, "described": 10881, "advertising": 10882, "Certain": 10883, "Users": 10884, "braces": 10885, "CPU": 10886, "Suggest": 10887, "innovative": 10888, "correction": 10889, "Scene": 10890, "Linked": 10891, "Recommended": 10892, "glitch": 10893, "uncertainty": 10894, "NDT": 10895, "diagonally": 10896, "legitimate": 10897, "Relaxation": 10898, "sophistication": 10899, "magnifying": 10900, "apprentice": 10901, "pendic": 10902, "Blood": 10903, "punctuation": 10904, "Components": 10905, "Samsung": 10906, "practitioners": 10907, "Official": 10908, "Prayer": 10909, "warrior": 10910, "embellishments": 10911, "consecutive": 10912, "Datab": 10913, "elaborate": 10914, "batteries": 10915, "nickname": 10916, "Fashion": 10917, "sketches": 10918, "2B": 10919, "Age": 10920, "Ce": 10921, "Cru": 10922, "Drink": 10923, "ET": 10924, "Flight": 10925, "MC": 10926, "Mas": 10927, "Met": 10928, "Match": 10929, "Mini": 10930, "Nail": 10931, "Ori": 10932, "Ohi": 10933, "Qui": 10934, "Rine": 10935, "Sil": 10936, "Schn": 10937, "Satur": 10938, "Spi": 10939, "Squir": 10940, "TP": 10941, "Tren": 10942, "Tape": 10943, "Ven": 10944, "Vel": 10945, "Will": 10946, "Year": 10947, "bid": 10948, "bail": 10949, "cence": 10950, "cous": 10951, "cue": 10952, "eved": 10953, "fif": 10954, "kis": 10955, "lers": 10956, "ladder": 10957, "mile": 10958, "nic": 10959, "ological": 10960, "pimp": 10961, "rine": 10962, "rats": 10963, "stip": 10964, "tte": 10965, "vince": 10966, "indeed": 10967, "reper": 10968, "rene": 10969, "anec": 10970, "tization": 10971, "alt": 10972, "theft": 10973, "lea": 10974, "legg": 10975, "leaf": 10976, "leverage": 10977, "stat": 10978, "dew": 10979, "liters": 10980, "isine": 10981, "chet": 10982, "prob": 10983, "icing": 10984, "respiratory": 10985, "uniqueness": 10986, "dial": 10987, "dipped": 10988, "sher": 10989, "verter": 10990, "exhale": 10991, "moon": 10992, "popping": 10993, "whatever": 10994, "perpendic": 10995, "wealth": 10996, "spins": 10997, "cance": 10998, "idal": 10999, "compression": 11000, "strate": 11001, "prepar": 11002, "gradi": 11003, "Consuming": 11004, "Inten": 11005, "Index": 11006, "estone": 11007, "quizzes": 11008, "raises": 11009, "partially": 11010, "Bereal": 11011, "owned": 11012, "financing": 11013, "financially": 11014, "endary": 11015, "Expl": 11016, "sky": 11017, "regul": 11018, "arities": 11019, "monolog": 11020, "obesity": 11021, "prescri": 11022, "workplace": 11023, "colate": 11024, "branch": 11025, "Total": 11026, "jokes": 11027, "expend": 11028, "breasts": 11029, "scri": 11030, "scape": 11031, "considerate": 11032, "confuse": 11033, "Option": 11034, "Optionally": 11035, "subculture": 11036, "marble": 11037, "margin": 11038, "cultiv": 11039, "boosting": 11040, "carpool": 11041, "termination": 11042, "terminology": 11043, "knows": 11044, "distant": 11045, "Solicit": 11046, "mistry": 11047, "rinking": 11048, "phob": 11049, "confidenti": 11050, "decided": 11051, "conversing": 11052, "eyelid": 11053, "keyword": 11054, "powders": 11055, "presentations": 11056, "harves": 11057, "optimizing": 11058, "ximity": 11059, "suitability": 11060, "Troubleshooting": 11061, "passive": 11062, "Notes": 11063, "positioned": 11064, "muscular": 11065, "reflections": 11066, "Week": 11067, "stays": 11068, "mystery": 11069, "streams": 11070, "identities": 11071, "visualize": 11072, "rays": 11073, "defend": 11074, "defenders": 11075, "packed": 11076, "prank": 11077, "introduction": 11078, "publicly": 11079, "organizers": 11080, "achievement": 11081, "please": 11082, "armor": 11083, "appeals": 11084, "sweat": 11085, "blot": 11086, "Performing": 11087, "Supple": 11088, "distributing": 11089, "recognized": 11090, "Interacting": 11091, "stimulation": 11092, "seasoned": 11093, "utilities": 11094, "Smaller": 11095, "snip": 11096, "Curl": 11097, "loosely": 11098, "Surrounding": 11099, "earnings": 11100, "superficial": 11101, "conceptions": 11102, "braid": 11103, "deleted": 11104, "thoughtfulness": 11105, "pedi": 11106, "Drying": 11107, "tissues": 11108, "Dressing": 11109, "listeners": 11110, "fixtures": 11111, "Layout": 11112, "Protein": 11113, "venture": 11114, "retains": 11115, "seller": 11116, "graduate": 11117, "Pieces": 11118, "Pivot": 11119, "shampoos": 11120, "assertive": 11121, "brainstorming": 11122, "Term": 11123, "trademark": 11124, "religion": 11125, "Count": 11126, "perceive": 11127, "discretion": 11128, "hunger": 11129, "granting": 11130, "Half": 11131, "theses": 11132, "estimated": 11133, "clinics": 11134, "didn": 11135, "Twist": 11136, "smudges": 11137, "olism": 11138, "surveys": 11139, "Electric": 11140, "flir": 11141, "Moisturize": 11142, "Japanese": 11143, "penetrate": 11144, "Minimize": 11145, "expedite": 11146, "silhouettes": 11147, "rendering": 11148, "Industry": 11149, "evapor": 11150, "Answer": 11151, "aquarium": 11152, "Europe": 11153, "IiB": 11154, "neighbors": 11155, "bodily": 11156, "vorce": 11157, "Energy": 11158, "Cornish": 11159, "shaft": 11160, "Declutter": 11161, "aerobic": 11162, "Docs": 11163, "glitches": 11164, "tutors": 11165, "younger": 11166, "Flexibility": 11167, "Ohio": 11168, "Rinely": 11169, "Schnau": 11170, "):**": 11171, "23": 11172, "Apo": 11173, "Abo": 11174, "BA": 11175, "Bon": 11176, "Bune": 11177, "Blush": 11178, "Cas": 11179, "Cup": 11180, "Egg": 11181, "Fro": 11182, "HM": 11183, "Ham": 11184, "Hide": 11185, "Kay": 11186, "Krish": 11187, "Lef": 11188, "Love": 11189, "Mod": 11190, "PVC": 11191, "RSS": 11192, "Sol": 11193, "Sag": 11194, "Song": 11195, "TT": 11196, "Tor": 11197, "Tru": 11198, "Tower": 11199, "\\]": 11200, "ailed": 11201, "bash": 11202, "cend": 11203, "ccer": 11204, "cavity": 11205, "gmental": 11206, "groo": 11207, "hatch": 11208, "lt": 11209, "lds": 11210, "lone": 11211, "lang": 11212, "pip": 11213, "slo": 11214, "slower": 11215, "recon": 11216, "retreat": 11217, "recycle": 11218, "angry": 11219, "erk": 11220, "stating": 11221, "stake": 11222, "attoo": 11223, "atric": 11224, "activating": 11225, "chy": 11226, "meant": 11227, "sule": 11228, "suic": 11229, "resort": 11230, "apolog": 11231, "unrelated": 11232, "diligence": 11233, "diaphrag": 11234, "mato": 11235, "makers": 11236, "shaving": 11237, "shorts": 11238, "extro": 11239, "mock": 11240, "motivate": 11241, "ola": 11242, "soccer": 11243, "utensi": 11244, "spor": 11245, "quarter": 11246, "citi": 11247, "computing": 11248, "Remo": 11249, "Reput": 11250, "clut": 11251, "rental": 11252, "grind": 11253, "Config": 11254, "bob": 11255, "Invite": 11256, "overlook": 11257, "quid": 11258, "sels": 11259, "Bella": 11260, "destru": 11261, "finance": 11262, "auce": 11263, "offices": 11264, "Cotton": 11265, "moning": 11266, "Station": 11267, "workflow": 11268, "gov": 11269, "budge": 11270, "Debris": 11271, "watermelon": 11272, "athers": 11273, "gens": 11274, "jogging": 11275, "ceramic": 11276, "scent": 11277, "scams": 11278, "scattered": 11279, "airflow": 11280, "difies": 11281, "Plants": 11282, "reader": 11283, "readings": 11284, "Polish": 11285, "tempt": 11286, "submissions": 11287, "blouses": 11288, "attended": 11289, "attendance": 11290, "funding": 11291, "ocad": 11292, "seeming": 11293, "carpets": 11294, "carrots": 11295, "Activate": 11296, "Prep": 11297, "tivirus": 11298, "rushed": 11299, "caps": 11300, "drills": 11301, "softer": 11302, "Disable": 11303, "Displaying": 11304, "Member": 11305, "Methods": 11306, "eyebrow": 11307, "populations": 11308, "pigs": 11309, "stars": 11310, "transformed": 11311, "generates": 11312, "ckles": 11313, "colorful": 11314, "judge": 11315, "stitches": 11316, "drawings": 11317, "cylin": 11318, "grams": 11319, "chemistry": 11320, "establishes": 11321, "knowledgeable": 11322, "bian": 11323, "Notice": 11324, "Notify": 11325, "demonstrated": 11326, "panic": 11327, "paints": 11328, "boundary": 11329, "Clamp": 11330, "streaks": 11331, "footprint": 11332, "swings": 11333, "switches": 11334, "finalize": 11335, "representatives": 11336, "catches": 11337, "urious": 11338, "Interview": 11339, "influential": 11340, "bulk": 11341, "convention": 11342, "iterate": 11343, "tirement": 11344, "stimulates": 11345, "Load": 11346, "judgmental": 11347, "foliage": 11348, "overwhelm": 11349, "camouflage": 11350, "Effects": 11351, "Handling": 11352, "casually": 11353, "acquisition": 11354, "conducting": 11355, "configure": 11356, "drafting": 11357, "rotating": 11358, "writers": 11359, "dampened": 11360, "criticizing": 11361, "scripts": 11362, "bathroom": 11363, "tuning": 11364, "Progressive": 11365, "Earth": 11366, "disciplines": 11367, "Paraphrase": 11368, "basin": 11369, "differing": 11370, "Attack": 11371, "SEUS": 11372, "debts": 11373, "solidifies": 11374, "crossover": 11375, "Movement": 11376, "MLB": 11377, "bristles": 11378, "victory": 11379, "Nonverbal": 11380, "Steer": 11381, "saniti": 11382, "interpretations": 11383, "Darkrai": 11384, "percentages": 11385, "sentences": 11386, "Shade": 11387, "skirt": 11388, "innovation": 11389, "Therapists": 11390, "investigate": 11391, "Jewelry": 11392, "Temper": 11393, "cartridge": 11394, "Muscle": 11395, "Calibre": 11396, "fragrances": 11397, "empowering": 11398, "incenti": 11399, "confirming": 11400, "bachelor": 11401, "laughter": 11402, "annoy": 11403, "Persistent": 11404, "academically": 11405, "soups": 11406, "basis": 11407, "inspections": 11408, "prominent": 11409, "Identity": 11410, "episodes": 11411, "dataset": 11412, "economic": 11413, "deliberate": 11414, "Exercises": 11415, "departure": 11416, "absolutely": 11417, "rabbit": 11418, "luggage": 11419, "privileges": 11420, "<!--": 11421, "abdominal": 11422, "empathize": 11423, "Compatibility": 11424, "Smith": 11425, "vomiting": 11426, "Alternate": 11427, "Perspective": 11428, "sneakers": 11429, "LinkedIn": 11430, "Velcro": 11431, "confidentiality": 11432, "Apolog": 11433, "Buneary": 11434, "Krishna": 11435, "utensils": 11436, "seemingly": 11437, ">.": 11438, "Aw": 11439, "BI": 11440, "Bright": 11441, "Cave": 11442, "Cros": 11443, "DO": 11444, "FM": 11445, "Five": 11446, "Gree": 11447, "Hip": 11448, "Hands": 11449, "Iron": 11450, "Imag": 11451, "LP": 11452, "Lif": 11453, "Leng": 11454, "Mouse": 11455, "Neck": 11456, "Narrow": 11457, "NPC": 11458, "OR": 11459, "Own": 11460, "PM": 11461, "Pour": 11462, "Rain": 11463, "Tree": 11464, "UNT": 11465, "Way": 11466, "Where": 11467, "bought": 11468, "bills": 11469, "border": 11470, "cit": 11471, "citation": 11472, "gum": 11473, "km": 11474, "none": 11475, "oce": 11476, "odia": 11477, "savor": 11478, "treas": 11479, "wracking": 11480, "ym": 11481, "inity": 11482, "intimate": 11483, "infections": 11484, "recru": 11485, "thy": 11486, "timore": 11487, "ouds": 11488, "alities": 11489, "toire": 11490, "-->": 11491, "lita": 11492, "isted": 11493, "isons": 11494, "chlor": 11495, "coast": 11496, "meats": 11497, "lotion": 11498, "proximity": 11499, "conting": 11500, "contexts": 11501, "adata": 11502, "apology": 11503, "unclear": 11504, "dim": 11505, "dieti": 11506, "mares": 11507, "maid": 11508, "shutter": 11509, "irregular": 11510, "poe": 11511, "perish": 11512, "peridot": 11513, "ut\u00e9": 11514, "spare": 11515, "lowers": 11516, "tickets": 11517, "cited": 11518, "crevices": 11519, "creams": 11520, "complicated": 11521, "agging": 11522, "immigration": 11523, "Refresh": 11524, "======": 11525, "mint": 11526, "minced": 11527, "boss": 11528, "Independ": 11529, "worsen": 11530, "nostri": 11531, "quite": 11532, "rake": 11533, "entist": 11534, "commis": 11535, "ppy": 11536, "actors": 11537, "discri": 11538, "discard": 11539, "disadvantages": 11540, "enduring": 11541, "endless": 11542, "Exodia": 11543, "anged": 11544, "Colored": 11545, "regist": 11546, "ario": 11547, "inets": 11548, "interfaces": 11549, "interference": 11550, "personnel": 11551, "Altar": 11552, "hose": 11553, "hoof": 11554, "locals": 11555, "gae": 11556, "gaze": 11557, "Proceed": 11558, "Deli": 11559, "Dealing": 11560, "suppliers": 11561, "velope": 11562, "Forward": 11563, "cerity": 11564, "expan": 11565, "expands": 11566, "scul": 11567, "scrib": 11568, "invention": 11569, "airlines": 11570, "Plastic": 11571, "differenti": 11572, "marin": 11573, "margins": 11574, "miss": 11575, "multime": 11576, "turt": 11577, "turkey": 11578, "safeguard": 11579, "clearance": 11580, "flex": 11581, "Shred": 11582, "Anxiety": 11583, "applicator": 11584, "criminal": 11585, "Moon": 11586, "searches": 11587, "furry": 11588, "Disorder": 11589, "Discard": 11590, "courget": 11591, "germs": 11592, "loads": 11593, "donate": 11594, "generous": 11595, "browns": 11596, "clippers": 11597, "Seed": 11598, "stove": 11599, "NoWri": 11600, "hormone": 11601, "drome": 11602, "grapef": 11603, "reflex": 11604, "Lean": 11605, "wears": 11606, "Desk": 11607, "Description": 11608, "Attainable": 11609, "Offering": 11610, "assistant": 11611, "Arm": 11612, "visualizing": 11613, "visualization": 11614, "malicious": 11615, "simplifies": 11616, "pute": 11617, "storyline": 11618, "Appreci": 11619, "defro": 11620, "satisfactory": 11621, "breakouts": 11622, "swap": 11623, "printed": 11624, "soles": 11625, "Communities": 11626, "adapting": 11627, "evaluations": 11628, "Clearing": 11629, "Calend": 11630, "recommendation": 11631, "says": 11632, "fraud": 11633, "expressed": 11634, "manuals": 11635, "NaNoWri": 11636, "circumference": 11637, "wishes": 11638, "costumes": 11639, "Culture": 11640, "aids": 11641, "moral": 11642, "judging": 11643, "heightened": 11644, "Smile": 11645, "assigning": 11646, "accomplishment": 11647, "Baltimore": 11648, "adaptation": 11649, "requesting": 11650, "microchip": 11651, "examining": 11652, "examinations": 11653, "rags": 11654, "submitted": 11655, "Detailed": 11656, "fume": 11657, "conversions": 11658, "refinement": 11659, "Securely": 11660, "crowding": 11661, "patties": 11662, "imaginative": 11663, "buyer": 11664, "Pressure": 11665, "Timer": 11666, "sustainability": 11667, "coursework": 11668, "assembled": 11669, "quote": 11670, "tablespoon": 11671, "Veter": 11672, "rituals": 11673, "exhibi": 11674, "Messages": 11675, "Sheets": 11676, "psychology": 11677, "freel": 11678, "Filters": 11679, "publishing": 11680, "pauses": 11681, "carriers": 11682, "celery": 11683, "Usage": 11684, "drum": 11685, "==============================================": 11686, "decreases": 11687, "Feedback": 11688, "COUNT": 11689, "binding": 11690, "enriching": 11691, "quirks": 11692, "deposit": 11693, "warnings": 11694, "frying": 11695, "Court": 11696, "fragrance": 11697, "slipper": 11698, "ancient": 11699, "festivals": 11700, "pronunciation": 11701, "Registry": 11702, "repetitive": 11703, "jellyfish": 11704, "pollu": 11705, "Accurately": 11706, "Prices": 11707, "delve": 11708, "spaghetti": 11709, "intriguing": 11710, "caviar": 11711, "receipt": 11712, "Suggestions": 11713, "Picture": 11714, "Available": 11715, "Exfoliate": 11716, "investigation": 11717, "Siri": 11718, "mitigate": 11719, "quarters": 11720, "Behavior": 11721, "bushes": 11722, "church": 11723, "appetite": 11724, "Vehicle": 11725, "Welcome": 11726, "loafers": 11727, "hearsals": 11728, "entrepreneur": 11729, "Trends": 11730, "repertoire": 11731, "leafy": 11732, "preparations": 11733, "regulatory": 11734, "expendit": 11735, "Above": 11736, "Imagine": 11737, "Lifestyle": 11738, "NaNoWriMo": 11739, "').": 11740, "($": 11741, "(+": 11742, "26": 11743, "28": 11744, "800": 11745, "AG": 11746, "Ber": 11747, "Bit": 11748, "Bed": 11749, "CPS": 11750, "Catching": 11751, "DC": 11752, "DM": 11753, "Dest": 11754, "Drinking": 11755, "Eth": 11756, "Efficient": 11757, "Federal": 11758, "GR": 11759, "Gift": 11760, "Him": 11761, "HIV": 11762, "Ign": 11763, "Kne": 11764, "Mach": 11765, "Pear": 11766, "Rap": 11767, "Yellow": 11768, "ah": 11769, "amed": 11770, "atoo": 11771, "bangs": 11772, "emit": 11773, "fumes": 11774, "fandom": 11775, "gad": 11776, "hur": 11777, "hits": 11778, "ius": 11779, "lan": 11780, "lated": 11781, "nap": 11782, "phas": 11783, "rack": 11784, "sort": 11785, "tum": 11786, "uating": 11787, "waking": 11788, "wasting": 11789, "zucchinis": 11790, "inspection": 11791, "rever": 11792, "remon": 11793, "redirect": 11794, "repayment": 11795, "rehearsals": 11796, "onny": 11797, "enities": 11798, "entered": 11799, "enroll": 11800, "oride": 11801, "tearing": 11802, "tears": 11803, "stated": 11804, "stacking": 11805, "atal": 11806, "attain": 11807, "rope": 11808, "acle": 11809, "detox": 11810, "sew": 11811, "seams": 11812, "lied": 11813, "lits": 11814, "entment": 11815, "coated": 11816, "fornia": 11817, "mele": 11818, "icion": 11819, "conquer": 11820, "abe": 11821, "bearing": 11822, "heli": 11823, "dium": 11824, "dips": 11825, "divorce": 11826, "vering": 11827, "except": 11828, "exams": 11829, "mop": 11830, "fever": 11831, "trousers": 11832, "neuter": 11833, "spheres": 11834, "duties": 11835, "comment": 11836, "amenities": 11837, "ticket": 11838, "cities": 11839, "cium": 11840, "stray": 11841, "straw": 11842, "agen": 11843, "img": 11844, "clan": 11845, "ctors": 11846, "avocad": 11847, "pread": 11848, "prerequisites": 11849, "Indic": 11850, "worries": 11851, "tedly": 11852, "overview": 11853, "overcoming": 11854, "onges": 11855, "domes": 11856, "warr": 11857, "disabling": 11858, "discovered": 11859, "discharge": 11860, "dissolve": 11861, "evoke": 11862, "petition": 11863, "Expression": 11864, "rown": 11865, "Core": 11866, "pride": 11867, "prizes": 11868, "naments": 11869, "curry": 11870, "Admin": 11871, "AdBlock": 11872, "Stone": 11873, "valve": 11874, "surgery": 11875, "backstory": 11876, "rying": 11877, "fights": 11878, "Product": 11879, "flavored": 11880, "chocolate": 11881, "bron": 11882, "Formul": 11883, "brew": 11884, "invitations": 11885, "depic": 11886, "ronutri": 11887, "confron": 11888, "blender": 11889, "hairline": 11890, "miscarri": 11891, "misconceptions": 11892, "selections": 11893, "medies": 11894, "empower": 11895, "Soda": 11896, "capes": 11897, "cribe": 11898, "mushy": 11899, "trims": 11900, "guess": 11901, "guitar": 11902, "foundations": 11903, "germination": 11904, "intentionally": 11905, "legumes": 11906, "learners": 11907, "extends": 11908, "accountable": 11909, "stops": 11910, "pastimes": 11911, "sleek": 11912, "ogue": 11913, "qualify": 11914, "cuttings": 11915, "resides": 11916, "residence": 11917, "tranqui": 11918, "cellular": 11919, "Legs": 11920, "startup": 11921, "Distr": 11922, "Diversi": 11923, "Weak": 11924, "welcome": 11925, "buildings": 11926, "brighter": 11927, "Offers": 11928, "modeling": 11929, "Arti": 11930, "Overcoming": 11931, "reliance": 11932, "appreciating": 11933, "passes": 11934, "slime": 11935, "Goku": 11936, "initiatives": 11937, "Fees": 11938, "Feeding": 11939, "rounds": 11940, "crochet": 11941, "bites": 11942, "nighttime": 11943, "Adjusting": 11944, "adaptable": 11945, "fishing": 11946, "straighten": 11947, "plets": 11948, "hydrate": 11949, "collaboratively": 11950, "harmless": 11951, "pairing": 11952, "executed": 11953, "squares": 11954, "separated": 11955, "preserves": 11956, "candles": 11957, "influencing": 11958, "volumes": 11959, "richer": 11960, "irritate": 11961, "zero": 11962, "excellence": 11963, "Subject": 11964, "Cultivating": 11965, "Island": 11966, "Lolita": 11967, "Measures": 11968, "fasten": 11969, "wikihow": 11970, "namon": 11971, "pathways": 11972, "wonder": 11973, "heartfelt": 11974, "Surface": 11975, "university": 11976, "groomer": 11977, "synchron": 11978, "Roll": 11979, "duplicate": 11980, "restricted": 11981, "Microfiber": 11982, "equine": 11983, "Standard": 11984, "bathing": 11985, "ambient": 11986, "ambigu": 11987, "eyeshadows": 11988, "Harvard": 11989, "pinpoint": 11990, "spinning": 11991, "manipulate": 11992, "Shopping": 11993, "demanding": 11994, "Driving": 11995, "Terms": 11996, "Terminal": 11997, "mounting": 11998, "contrasting": 11999, "alterations": 12000, "borrow": 12001, "===============================================": 12002, "Princip": 12003, "victim": 12004, "rigorous": 12005, "extremely": 12006, "incident": 12007, "symmetrical": 12008, "Scout": 12009, "scholarship": 12010, "inserting": 12011, "reminis": 12012, "endorse": 12013, "sweeping": 12014, "California": 12015, "gossip": 12016, "retrieval": 12017, "llian": 12018, "Techno": 12019, "Heart": 12020, "snug": 12021, "snugly": 12022, "numerical": 12023, "Receive": 12024, "hydrogen": 12025, "fertilizer": 12026, "Leadership": 12027, "Accordingly": 12028, "manga": 12029, "Bowl": 12030, "mortgage": 12031, "newspapers": 12032, "Kitty": 12033, "Nutrition": 12034, "predictability": 12035, "homeschooling": 12036, "Virtual": 12037, "sarong": 12038, "wrestling": 12039, "adopted": 12040, "=========================================": 12041, "vaccinations": 12042, "Thoughtfully": 12043, "hormonal": 12044, "necessitate": 12045, "Gracefully": 12046, "Massage": 12047, "Occa": 12048, "competence": 12049, "Credit": 12050, "tweezers": 12051, "Puppy": 12052, "Concerns": 12053, "Diamond": 12054, "anecdotes": 12055, "leggings": 12056, "Temperature": 12057, "Apologize": 12058, "slippery": 12059, "pollution": 12060, "onnyaku": 12061, "\"**.": 12062, "69": 12063, "Bath": 12064, "Bank": 12065, "Battery": 12066, "Dy": 12067, "EI": 12068, "Easy": 12069, "Fear": 12070, "GPS": 12071, "Marily": 12072, "Mirr": 12073, "Pinterest": 12074, "Park": 12075, "Pier": 12076, "Ri": 12077, "Round": 12078, "SD": 12079, "Sta": 12080, "Sep": 12081, "Snow": 12082, "Sew": 12083, "Soul": 12084, "Solutions": 12085, "Tele": 12086, "Tire": 12087, "Tracking": 12088, "Uber": 12089, "Whi": 12090, "Xbox": 12091, "bait": 12092, "binary": 12093, "cending": 12094, "d\u00e9": 12095, "eper": 12096, "east": 12097, "fence": 12098, "flips": 12099, "lunch": 12100, "nation": 12101, "punch": 12102, "pounds": 12103, "pimple": 12104, "son": 12105, "sest": 12106, "swelling": 12107, "umb": 12108, "xia": 12109, "retirement": 12110, "tish": 12111, "envelope": 12112, "arising": 12113, "dece": 12114, "dedu": 12115, "defec": 12116, "island": 12117, "itting": 12118, "itative": 12119, "champ": 12120, "chairs": 12121, "chords": 12122, "ceiling": 12123, "asset": 12124, "conges": 12125, "construct": 12126, "convic": 12127, "mpoline": 12128, "admi": 12129, "ulative": 12130, "resentment": 12131, "rides": 12132, "rival": 12133, "bells": 12134, "getic": 12135, "geek": 12136, "essentials": 12137, "apis": 12138, "unnecessarily": 12139, "unattended": 12140, "dign": 12141, "dios": 12142, "ura": 12143, "modi": 12144, "olds": 12145, "potions": 12146, "linear": 12147, "tras": 12148, "soy": 12149, "sodium": 12150, "spons": 12151, "ammat": 12152, "canal": 12153, "compart": 12154, "etly": 12155, "predat": 12156, "preheated": 12157, "grin": 12158, "tainment": 12159, "worlds": 12160, "overheating": 12161, "ramp": 12162, "dedicate": 12163, "corro": 12164, "corks": 12165, "licks": 12166, "mainly": 12167, "warmer": 12168, "ppings": 12169, "fins": 12170, "earrings": 12171, "endors": 12172, "Chat": 12173, "astro": 12174, "spectr": 12175, "caliper": 12176, "Cos": 12177, "Cogs": 12178, "hier": 12179, "plane": 12180, "planner": 12181, "otherap": 12182, "timacy": 12183, "interval": 12184, "Alco": 12185, "impair": 12186, "assass": 12187, "manif": 12188, "mancy": 12189, "sulf": 12190, "closest": 12191, "cuse": 12192, "variables": 12193, "Toonto": 12194, "Determin": 12195, "Forms": 12196, "wellness": 12197, "cleaners": 12198, "scars": 12199, "syll": 12200, "addressed": 12201, "gia": 12202, "whom": 12203, "temples": 12204, "blends": 12205, "facility": 12206, "responsiveness": 12207, "omes": 12208, "portray": 12209, "Healing": 12210, "carries": 12211, "Acknow": 12212, "Prevent": 12213, "distor": 12214, "capsule": 12215, "textual": 12216, "lifetime": 12217, "adequ": 12218, "Compassion": 12219, "gums": 12220, "Whenever": 12221, "Mem": 12222, "issued": 12223, "intensi": 12224, "harness": 12225, "visuals": 12226, "translate": 12227, "coloring": 12228, "browning": 12229, "Sea": 12230, "draws": 12231, "childhood": 12232, "Grass": 12233, "cheating": 12234, "associate": 12235, "stocks": 12236, "specialty": 12237, "dropping": 12238, "Updated": 12239, "residu": 12240, "salary": 12241, "Weap": 12242, "usernames": 12243, "assists": 12244, "chanting": 12245, "crast": 12246, "lifts": 12247, "Goal": 12248, "animations": 12249, "digans": 12250, "consumer": 12251, "giveaways": 12252, "graphs": 12253, "bows": 12254, "packs": 12255, "Showcase": 12256, "agreeing": 12257, "sunset": 12258, "collaborations": 12259, "categorize": 12260, "Alternative": 12261, "Alternatives": 12262, "weakness": 12263, "weakened": 12264, "squats": 12265, "Embracing": 12266, "floating": 12267, "lawn": 12268, "validity": 12269, "Bud": 12270, "Installing": 12271, "Assessment": 12272, "Commonly": 12273, "receiver": 12274, "interrupted": 12275, "Waterfall": 12276, "lectures": 12277, "evil": 12278, "universe": 12279, "Student": 12280, "Customer": 12281, "decoration": 12282, "mechanism": 12283, "cosmetic": 12284, "emphasis": 12285, "emphasizes": 12286, "eliminates": 12287, "teenage": 12288, "Trillian": 12289, "Fig": 12290, "Helpful": 12291, "metallic": 12292, "Item": 12293, "Party": 12294, "retaining": 12295, "functionalities": 12296, "ethic": 12297, "radius": 12298, "pierogies": 12299, "banking": 12300, "banks": 12301, "SSH": 12302, "replicate": 12303, "debates": 12304, "=====================================================": 12305, "Enhancing": 12306, "fluids": 12307, "couples": 12308, "uniformly": 12309, "titled": 12310, "Steel": 12311, "violence": 12312, "Sales": 12313, "anchor": 12314, "arriving": 12315, "digestive": 12316, "exfoliation": 12317, "holidays": 12318, "modesty": 12319, "literary": 12320, "married": 12321, "clinical": 12322, "pellets": 12323, "flaws": 12324, "Woodcutting": 12325, "administrator": 12326, "inserted": 12327, "alogues": 12328, "Including": 12329, "calendars": 12330, "illustrate": 12331, "icycle": 12332, "empowers": 12333, "googleapis": 12334, "kicks": 12335, "flushing": 12336, "diagonal": 12337, "Journal": 12338, "mango": 12339, "annoying": 12340, "prematurely": 12341, "Persistence": 12342, "academics": 12343, "plaque": 12344, "newspaper": 12345, "dribbling": 12346, "DNI": 12347, "gothic": 12348, "secret": 12349, "exaggerated": 12350, "Square": 12351, "Meaning": 12352, "chewing": 12353, "contaminants": 12354, "disinfectant": 12355, "distinguish": 12356, "Frequently": 12357, "Expert": 12358, "Candy": 12359, "aroma": 12360, "conservation": 12361, "plywood": 12362, "Jamaa": 12363, "gravel": 12364, "armadillos": 12365, "metabolism": 12366, "guardians": 12367, "Girls": 12368, "Today": 12369, "chamber": 12370, "accusatory": 12371, "ghost": 12372, "Database": 12373, "Mascara": 12374, "Squirtle": 12375, "cousin": 12376,
[...]
